<unk>	0
<s>	0
</s>	0
<|padding|>	0
<|endoftext|>	0
<|sep|>	0
<|mask|>	0
<0x00>	0
<0x01>	0
<0x02>	0
<0x03>	0
<0x04>	0
<0x05>	0
<0x06>	0
<0x07>	0
<0x08>	0
<0x09>	0
<0x0A>	0
<0x0B>	0
<0x0C>	0
<0x0D>	0
<0x0E>	0
<0x0F>	0
<0x10>	0
<0x11>	0
<0x12>	0
<0x13>	0
<0x14>	0
<0x15>	0
<0x16>	0
<0x17>	0
<0x18>	0
<0x19>	0
<0x1A>	0
<0x1B>	0
<0x1C>	0
<0x1D>	0
<0x1E>	0
<0x1F>	0
<0x20>	0
<0x21>	0
<0x22>	0
<0x23>	0
<0x24>	0
<0x25>	0
<0x26>	0
<0x27>	0
<0x28>	0
<0x29>	0
<0x2A>	0
<0x2B>	0
<0x2C>	0
<0x2D>	0
<0x2E>	0
<0x2F>	0
<0x30>	0
<0x31>	0
<0x32>	0
<0x33>	0
<0x34>	0
<0x35>	0
<0x36>	0
<0x37>	0
<0x38>	0
<0x39>	0
<0x3A>	0
<0x3B>	0
<0x3C>	0
<0x3D>	0
<0x3E>	0
<0x3F>	0
<0x40>	0
<0x41>	0
<0x42>	0
<0x43>	0
<0x44>	0
<0x45>	0
<0x46>	0
<0x47>	0
<0x48>	0
<0x49>	0
<0x4A>	0
<0x4B>	0
<0x4C>	0
<0x4D>	0
<0x4E>	0
<0x4F>	0
<0x50>	0
<0x51>	0
<0x52>	0
<0x53>	0
<0x54>	0
<0x55>	0
<0x56>	0
<0x57>	0
<0x58>	0
<0x59>	0
<0x5A>	0
<0x5B>	0
<0x5C>	0
<0x5D>	0
<0x5E>	0
<0x5F>	0
<0x60>	0
<0x61>	0
<0x62>	0
<0x63>	0
<0x64>	0
<0x65>	0
<0x66>	0
<0x67>	0
<0x68>	0
<0x69>	0
<0x6A>	0
<0x6B>	0
<0x6C>	0
<0x6D>	0
<0x6E>	0
<0x6F>	0
<0x70>	0
<0x71>	0
<0x72>	0
<0x73>	0
<0x74>	0
<0x75>	0
<0x76>	0
<0x77>	0
<0x78>	0
<0x79>	0
<0x7A>	0
<0x7B>	0
<0x7C>	0
<0x7D>	0
<0x7E>	0
<0x7F>	0
<0x80>	0
<0x81>	0
<0x82>	0
<0x83>	0
<0x84>	0
<0x85>	0
<0x86>	0
<0x87>	0
<0x88>	0
<0x89>	0
<0x8A>	0
<0x8B>	0
<0x8C>	0
<0x8D>	0
<0x8E>	0
<0x8F>	0
<0x90>	0
<0x91>	0
<0x92>	0
<0x93>	0
<0x94>	0
<0x95>	0
<0x96>	0
<0x97>	0
<0x98>	0
<0x99>	0
<0x9A>	0
<0x9B>	0
<0x9C>	0
<0x9D>	0
<0x9E>	0
<0x9F>	0
<0xA0>	0
<0xA1>	0
<0xA2>	0
<0xA3>	0
<0xA4>	0
<0xA5>	0
<0xA6>	0
<0xA7>	0
<0xA8>	0
<0xA9>	0
<0xAA>	0
<0xAB>	0
<0xAC>	0
<0xAD>	0
<0xAE>	0
<0xAF>	0
<0xB0>	0
<0xB1>	0
<0xB2>	0
<0xB3>	0
<0xB4>	0
<0xB5>	0
<0xB6>	0
<0xB7>	0
<0xB8>	0
<0xB9>	0
<0xBA>	0
<0xBB>	0
<0xBC>	0
<0xBD>	0
<0xBE>	0
<0xBF>	0
<0xC0>	0
<0xC1>	0
<0xC2>	0
<0xC3>	0
<0xC4>	0
<0xC5>	0
<0xC6>	0
<0xC7>	0
<0xC8>	0
<0xC9>	0
<0xCA>	0
<0xCB>	0
<0xCC>	0
<0xCD>	0
<0xCE>	0
<0xCF>	0
<0xD0>	0
<0xD1>	0
<0xD2>	0
<0xD3>	0
<0xD4>	0
<0xD5>	0
<0xD6>	0
<0xD7>	0
<0xD8>	0
<0xD9>	0
<0xDA>	0
<0xDB>	0
<0xDC>	0
<0xDD>	0
<0xDE>	0
<0xDF>	0
<0xE0>	0
<0xE1>	0
<0xE2>	0
<0xE3>	0
<0xE4>	0
<0xE5>	0
<0xE6>	0
<0xE7>	0
<0xE8>	0
<0xE9>	0
<0xEA>	0
<0xEB>	0
<0xEC>	0
<0xED>	0
<0xEE>	0
<0xEF>	0
<0xF0>	0
<0xF1>	0
<0xF2>	0
<0xF3>	0
<0xF4>	0
<0xF5>	0
<0xF6>	0
<0xF7>	0
<0xF8>	0
<0xF9>	0
<0xFA>	0
<0xFB>	0
<0xFC>	0
<0xFD>	0
<0xFE>	0
<0xFF>	0
ст	-0
▁п	-1
▁в	-2
ра	-3
ен	-4
ко	-5
▁с	-6
но	-7
на	-8
го	-9
ро	-10
▁и	-11
▁о	-12
ре	-13
ни	-14
то	-15
ли	-16
ль	-17
ва	-18
ри	-19
▁по	-20
ны	-21
ка	-22
да	-23
ла	-24
▁на	-25
те	-26
▁д	-27
ло	-28
та	-29
ле	-30
во	-31
ки	-32
ер	-33
▁м	-34
▁б	-35
не	-36
ени	-37
ско	-38
за	-39
ти	-40
▁В	-41
ми	-42
▁го	-43
ет	-44
▁ко	-45
▁у	-46
ста	-47
ди	-48
ся	-49
▁С	-50
че	-51
▁а	-52
ру	-53
ви	-54
▁со	-55
ци	-56
ля	-57
▁ра	-58
▁(	-59
ве	-60
▁П	-61
ма	-62
▁за	-63
▁«	-64
ски	-65
▁к	-66
ча	-67
ду	-68
▁К	-69
по	-70
де	-71
▁про	-72
до	-73
бо	-74
сти	-75
сто	-76
▁бы	-77
▁не	-78
▁во	-79
си	-80
чи	-81
▁от	-82
ной	-83
ть	-84
хо	-85
▁г	-86
мо	-87
 —	-88
ме	-89
▁при	-90
▁об	-91
▁М	-92
▁из	-93
се	-94
ры	-95
же	-96
▁ка	-97
▁до	-98
ных	-99
со	-100
▁А	-101
▁э	-102
ения	-103
ного	-104
▁ф	-105
па	-106
ем	-107
пи	-108
▁Б	-109
▁Н	-110
▁вы	-111
▁Р	-112
га	-113
сь	-114
лу	-115
са	-116
ере	-117
ги	-118
▁е	-119
ный	-120
ши	-121
ту	-122
ской	-123
▁ре	-124
вы	-125
▁О	-126
тель	-127
▁Д	-128
ку	-129
ря	-130
▁ч	-131
ского	-132
ей	-133
зо	-134
▁года	-135
жи	-136
ну	-137
▁пре	-138
▁Г	-139
ар	-140
ств	-141
ение	-142
▁се	-143
ные	-144
сть	-145
▁Т	-146
▁т	-147
ня	-148
щи	-149
мен	-150
зи	-151
▁И	-152
▁то	-153
сле	-154
гра	-155
▁ме	-156
▁По	-157
му	-158
▁те	-159
ский	-160
вани	-161
▁кото	-162
▁та	-163
▁мо	-164
ан	-165
лен	-166
ты	-167
▁де	-168
пе	-169
▁ста	-170
ство	-171
▁Л	-172
ции	-173
▁году	-174
▁что	-175
ор	-176
▁но	-177
би	-178
он	-179
▁ма	-180
ке	-181
▁че	-182
ров	-183
▁был	-184
лю	-185
фи	-186
▁бо	-187
▁под	-188
лся	-189
нов	-190
▁раз	-191
ска	-192
ным	-193
ная	-194
вер	-195
).	-196
ще	-197
ется	-198
ков	-199
ют	-200
▁я	-201
▁пере	-202
ном	-203
спо	-204
▁з	-205
ды	-206
пу	-207
вля	-208
ствен	-209
она	-210
▁ст	-211
ше	-212
▁На	-213
це	-214
ран	-215
зы	-216
сси	-217
жа	-218
су	-219
▁У	-220
».	-221
▁сво	-222
▁Ф	-223
),	-224
ских	-225
года	-226
▁"	-227
▁ро	-228
▁это	-229
тив	-230
ён	-231
рова	-232
ха	-233
ства	-234
▁для	-235
▁кон	-236
жен	-237
▁как	-238
▁его	-239
мя	-240
▁так	-241
▁ли	-242
ходи	-243
ба	-244
ное	-245
ент	-246
ца	-247
▁соста	-248
▁ми	-249
гу	-250
ром	-251
бе	-252
▁пред	-253
▁ле	-254
. 	-255
тов	-256
мы	-257
»,	-258
кт	-259
▁З	-260
▁которы	-261
▁Ро	-262
ман	-263
▁ш	-264
▁Э	-265
▁ча	-266
вой	-267
▁пер	-268
ность	-269
ности	-270
ния	-271
▁си	-272
род	-273
сту	-274
▁Х	-275
▁он	-276
ления	-277
▁са	-278
▁Ка	-279
▁ве	-280
▁вре	-281
бы	-282
▁—	-283
нии	-284
▁ц	-285
▁ин	-286
аль	-287
мер	-288
ур	-289
рии	-290
▁Со	-291
зу	-292
▁да	-293
ющи	-294
▁од	-295
ную	-296
ском	-297
ес	-298
вет	-299
сте	-300
бря	-301
лы	-302
▁пра	-303
вя	-304
▁рабо	-305
ев	-306
▁воз	-307
пра	-308
▁фи	-309
▁Е	-310
ден	-311
▁ос	-312
▁после	-313
стоя	-314
▁ди	-315
ская	-316
ву	-317
ща	-318
▁Ко	-319
▁су	-320
▁Ма	-321
ние	-322
▁также	-323
▁Ч	-324
об	-325
хи	-326
лись	-327
▁му	-328
ша	-329
рия	-330
ге	-331
году	-332
том	-333
рой	-334
▁нача	-335
ск	-336
▁ком	-337
ком	-338
▁ру	-339
лась	-340
▁жи	-341
тся	-342
лей	-343
пре	-344
▁ав	-345
▁па	-346
▁ар	-347
чен	-348
▁же	-349
▁была	-350
▁рас	-351
вши	-352
ские	-353
вания	-354
кра	-355
руп	-356
▁были	-357
▁полу	-358
▁все	-359
ция	-360
зна	-361
▁рай	-362
▁ни	-363
бли	-364
нд	-365
▁ви	-366
ении	-367
ред	-368
про	-369
ление	-370
▁было	-371
из	-372
▁хо	-373
тиче	-374
▁дру	-375
▁обра	-376
▁Ш	-377
вал	-378
ван	-379
ными	-380
стра	-381
▁время	-382
▁обла	-383
▁Во	-384
дов	-385
тор	-386
) —	-387
кой	-388
▁х	-389
ник	-390
ене	-391
нима	-392
ней	-393
дин	-394
▁За	-395
ника	-396
кон	-397
зда	-398
ску	-399
вод	-400
гла	-401
вание	-402
тер	-403
стви	-404
▁уча	-405
ин	-406
дер	-407
дар	-408
лось	-409
▁бе	-410
графи	-411
▁ба	-412
▁вой	-413
▁испо	-414
▁Та	-415
вед	-416
пы	-417
лов	-418
▁им	-419
ября	-420
ена	-421
жд	-422
▁ор	-423
▁пе	-424
▁Мо	-425
▁коман	-426
гда	-427
er	-428
лько	-429
лове	-430
лав	-431
каза	-432
стро	-433
лек	-434
▁пу	-435
▁или	-436
мпи	-437
лее	-438
▁горо	-439
▁Росси	-440
ться	-441
ются	-442
ек	-443
логи	-444
▁Ра	-445
вых	-446
вые	-447
▁боль	-448
рон	-449
цы	-450
ское	-451
▁ию	-452
зе	-453
▁челове	-454
ений	-455
▁явля	-456
рь	-457
▁Бо	-458
ству	-459
ход	-460
▁чи	-461
▁I	-462
ёл	-463
ским	-464
вый	-465
тур	-466
▁сто	-467
жду	-468
▁ю	-469
ональ	-470
писа	-471
▁вер	-472
▁исто	-473
▁пи	-474
or	-475
ью	-476
сы	-477
лом	-478
нг	-479
▁гра	-480
кры	-481
▁слу	-482
▁Па	-483
стве	-484
кан	-485
зыва	-486
ографи	-487
▁ку	-488
ением	-489
бу	-490
ению	-491
in	-492
▁пол	-493
▁Ми	-494
клю	-495
раль	-496
▁име	-497
▁области	-498
▁После	-499
▁дол	-500
бор	-501
бер	-502
вого	-503
ёр	-504
пер	-505
▁Са	-506
фор	-507
▁зна	-508
an	-509
on	-510
▁ки	-511
СР	-512
▁свя	-513
ёт	-514
▁получи	-515
судар	-516
▁лет	-517
▁пар	-518
▁её	-519
▁S	-520
▁груп	-521
ом	-522
▁ок	-523
пера	-524
фе	-525
▁где	-526
▁их	-527
ём	-528
▁который	-529
▁цент	-530
прав	-531
став	-532
▁Я	-533
ний	-534
бра	-535
▁созда	-536
▁бу	-537
▁ис	-538
цион	-539
▁исполь	-540
вест	-541
▁насе	-542
ат	-543
зд	-544
лем	-545
▁други	-546
рен	-547
▁объ	-548
▁ж	-549
вая	-550
▁само	-551
телей	-552
лан	-553
▁мар	-554
от	-555
теля	-556
▁произ	-557
▁дере	-558
▁наз	-559
оне	-560
зя	-561
▁чемпи	-562
сно	-563
ье	-564
вич	-565
▁тер	-566
▁Ни	-567
▁образо	-568
вали	-569
лож	-570
▁При	-571
циаль	-572
води	-573
▁Ц	-574
▁иг	-575
▁стал	-576
▁Би	-577
скую	-578
тия	-579
▁между	-580
▁работа	-581
мии	-582
чно	-583
▁Но	-584
▁C	-585
ников	-586
▁авто	-587
▁состав	-588
▁орга	-589
дом	-590
ография	-591
кто	-592
цию	-593
спе	-594
▁оста	-595
▁X	-596
жда	-597
▁Се	-598
▁Ба	-599
при	-600
стре	-601
▁более	-602
тери	-603
▁Ю	-604
тан	-605
им	-606
▁Го	-607
вать	-608
ья	-609
сов	-610
нако	-611
▁Ли	-612
▁сель	-613
▁составля	-614
ar	-615
▁России	-616
▁стра	-617
ун	-618
сс	-619
▁осно	-620
▁спо	-621
en	-622
▁жен	-623
рито	-624
циональ	-625
нее	-626
▁M	-627
сло	-628
▁поли	-629
▁распо	-630
▁Пер	-631
вым	-632
ему	-633
▁фа	-634
▁находи	-635
▁A	-636
▁пла	-637
тельно	-638
пол	-639
три	-640
▁лю	-641
▁государ	-642
сты	-643
ень	-644
▁против	-645
ложен	-646
▁состоя	-647
рован	-648
вое	-649
▁Ку	-650
▁дерев	-651
рая	-652
▁тре	-653
мени	-654
▁нау	-655
▁отно	-656
рак	-657
рио	-658
таль	-659
мини	-660
фа	-661
▁том	-662
лли	-663
▁пос	-664
ходит	-665
▁уни	-666
▁сле	-667
▁Ки	-668
цу	-669
льта	-670
жно	-671
▁Ви	-672
▁Ве	-673
ССР	-674
ких	-675
енно	-676
али	-677
▁города	-678
ниче	-679
рт	-680
вета	-681
▁человек	-682
ено	-683
чение	-684
нь	-685
▁обо	-686
реди	-687
жения	-688
▁является	-689
вро	-690
публи	-691
II	-692
пад	-693
▁того	-694
▁До	-695
дей	-696
мери	-697
▁фор	-698
нва	-699
▁дан	-700
es	-701
▁вто	-702
▁окру	-703
▁сы	-704
лад	-705
▁эк	-706
▁Ме	-707
следо	-708
шо	-709
чения	-710
▁которые	-711
вил	-712
лия	-713
емы	-714
▁Ж	-715
 %	-716
вор	-717
нской	-718
▁посе	-719
▁Бе	-720
▁шко	-721
вре	-722
соб	-723
▁филь	-724
▁предста	-725
▁высту	-726
▁Ва	-727
верси	-728
рий	-729
сса	-730
▁она	-731
▁неско	-732
▁извест	-733
▁дву	-734
▁коро	-735
▁Ге	-736
нского	-737
▁ак	-738
▁ти	-739
обра	-740
зульта	-741
лле	-742
лё	-743
▁город	-744
▁га	-745
вом	-746
льно	-747
▁обще	-748
станов	-749
ники	-750
▁только	-751
▁прои	-752
▁органи	-753
▁год	-754
▁клу	-755
шей	-756
▁части	-757
▁Си	-758
тра	-759
▁Ар	-760
▁над	-761
▁мат	-762
жет	-763
▁которо	-764
la	-765
чной	-766
▁высо	-767
коло	-768
▁террито	-769
рои	-770
▁чемпиона	-771
ят	-772
▁Исто	-773
▁T	-774
цев	-775
мина	-776
▁дека	-777
чных	-778
ках	-779
▁янва	-780
▁сред	-781
▁района	-782
ческой	-783
дол	-784
▁пло	-785
▁совет	-786
▁язы	-787
▁ва	-788
ены	-789
▁дей	-790
мой	-791
дель	-792
▁аль	-793
тем	-794
▁войны	-795
▁спе	-796
▁результа	-797
бре	-798
сли	-799
дь	-800
▁Алек	-801
al	-802
▁сбор	-803
ством	-804
рта	-805
версите	-806
▁Не	-807
▁Дж	-808
▁сент	-809
▁окт	-810
▁место	-811
▁B	-812
▁перио	-813
той	-814
▁авгу	-815
▁этого	-816
▁СССР	-817
цо	-818
▁вос	-819
▁Он	-820
ут	-821
кото	-822
рук	-823
▁сезо	-824
▁ад	-825
▁они	-826
▁жиз	-827
рез	-828
▁тем	-829
▁це	-830
▁вклю	-831
▁использо	-832
ША	-833
кого	-834
▁часть	-835
▁выпу	-836
▁кра	-837
▁вла	-838
▁свои	-839
тя	-840
рабо	-841
ститу	-842
ций	-843
▁этом	-844
удо	-845
▁P	-846
бур	-847
министра	-848
▁апре	-849
▁помо	-850
▁чет	-851
тин	-852
ческих	-853
at	-854
▁глав	-855
▁основ	-856
▁приня	-857
",	-858
телем	-859
▁уч	-860
▁,	-861
ic	-862
▁би	-863
щей	-864
шего	-865
▁сем	-866
▁Про	-867
дии	-868
▁США	-869
стан	-870
стер	-871
▁прави	-872
▁Од	-873
лет	-874
ссе	-875
▁Биография	-876
▁руко	-877
чита	-878
▁эти	-879
йской	-880
▁вме	-881
▁член	-882
▁окон	-883
ях	-884
тели	-885
тера	-886
▁рус	-887
▁составе	-888
ющий	-889
▁участи	-890
▁То	-891
▁тех	-892
лён	-893
▁Ре	-894
тро	-895
вар	-896
ую	-897
щё	-898
▁дея	-899
▁История	-900
лин	-901
хов	-902
коно	-903
ческого	-904
▁которых	-905
ками	-906
▁два	-907
▁чтобы	-908
▁когда	-909
ственной	-910
лии	-911
ющих	-912
▁откры	-913
стран	-914
вший	-915
▁тра	-916
▁ла	-917
▁игра	-918
шения	-919
▁компа	-920
сков	-921
▁побе	-922
▁фев	-923
лага	-924
дела	-925
ностью	-926
тура	-927
▁кре	-928
вает	-929
него	-930
шая	-931
ним	-932
кре	-933
▁университе	-934
сла	-935
▁воен	-936
вин	-937
▁каче	-938
he	-939
▁сло	-940
жение	-941
▁февра	-942
▁музы	-943
слу	-944
▁занима	-945
ющие	-946
▁гу	-947
личи	-948
рев	-949
визи	-950
▁Су	-951
тий	-952
нию	-953
▁кла	-954
▁R	-955
рё	-956
стов	-957
▁цер	-958
руд	-959
▁Де	-960
▁около	-961
ному	-962
▁реки	-963
туры	-964
тен	-965
мерикан	-966
год	-967
кий	-968
▁бра	-969
▁эле	-970
▁Га	-971
тии	-972
писи	-973
лез	-974
▁долж	-975
▁мно	-976
▁три	-977
▁Кар	-978
▁Из	-979
боль	-980
▁Ин	-981
".	-982
ших	-983
▁км	-984
един	-985
▁Да	-986
преде	-987
щего	-988
▁Так	-989
▁ду	-990
▁много	-991
▁мест	-992
ником	-993
▁зо	-994
▁пес	-995
▁населения	-996
▁следу	-997
▁D	-998
вала	-999
▁деятель	-1000
is	-1001
личе	-1002
них	-1003
▁января	-1004
▁расположен	-1005
мов	-1006
кси	-1007
▁Фран	-1008
скому	-1009
шёл	-1010
▁продол	-1011
чил	-1012
▁ха	-1013
▁Ан	-1014
▁поя	-1015
▁кор	-1016
▁районе	-1017
щен	-1018
▁ря	-1019
ссо	-1020
бой	-1021
нови	-1022
▁Кон	-1023
зан	-1024
нем	-1025
▁Ле	-1026
▁мая	-1027
▁получил	-1028
▁ге	-1029
хра	-1030
ким	-1031
ступи	-1032
▁Ста	-1033
▁кни	-1034
▁Ру	-1035
ступ	-1036
тей	-1037
▁Вы	-1038
▁разви	-1039
▁мира	-1040
▁кар	-1041
▁июля	-1042
▁декабря	-1043
▁двух	-1044
▁Ла	-1045
▁несколько	-1046
кие	-1047
▁сентября	-1048
его	-1049
▁роди	-1050
▁дви	-1051
▁ещё	-1052
▁Укра	-1053
▁альбо	-1054
▁поз	-1055
▁августа	-1056
зации	-1057
▁поло	-1058
▁марта	-1059
▁которая	-1060
▁заня	-1061
▁суще	-1062
вра	-1063
▁Вели	-1064
которы	-1065
▁через	-1066
▁Пре	-1067
▁октября	-1068
▁тур	-1069
▁шта	-1070
▁Мар	-1071
▁своей	-1072
▁годах	-1073
▁поч	-1074
ванием	-1075
министратив	-1076
▁апреля	-1077
▁сторо	-1078
▁изда	-1079
цен	-1080
ждения	-1081
▁послед	-1082
▁годы	-1083
▁куль	-1084
▁истори	-1085
▁которой	-1086
▁июня	-1087
▁худо	-1088
етров	-1089
▁кри	-1090
▁Это	-1091
▁Алекса	-1092
▁уже	-1093
▁Ха	-1094
▁Кра	-1095
▁лу	-1096
народ	-1097
▁G	-1098
лий	-1099
▁один	-1100
▁F	-1101
▁назна	-1102
пло	-1103
▁.	-1104
мент	-1105
рей	-1106
us	-1107
▁зем	-1108
мей	-1109
чин	-1110
▁() —	-1111
▁Евро	-1112
▁государствен	-1113
▁качестве	-1114
ктор	-1115
▁без	-1116
▁ги	-1117
▁территории	-1118
гов	-1119
грам	-1120
мента	-1121
фо	-1122
▁них	-1123
▁националь	-1124
▁Насе	-1125
зяй	-1126
скими	-1127
над	-1128
it	-1129
ссий	-1130
▁теле	-1131
урна	-1132
▁Моск	-1133
сом	-1134
шение	-1135
▁Гер	-1136
щая	-1137
ляр	-1138
▁затем	-1139
▁испол	-1140
▁учи	-1141
▁ноября	-1142
щее	-1143
▁других	-1144
▁стан	-1145
каде	-1146
▁офи	-1147
▁ло	-1148
▁гене	-1149
▁архи	-1150
ян	-1151
▁Александ	-1152
гласно	-1153
▁исследо	-1154
▁част	-1155
▁Фи	-1156
няя	-1157
▁ши	-1158
▁период	-1159
тирова	-1160
дж	-1161
лла	-1162
▁может	-1163
чные	-1164
▁находится	-1165
▁Ав	-1166
рах	-1167
▁L	-1168
▁Сан	-1169
▁ему	-1170
мот	-1171
шен	-1172
▁фина	-1173
▁сра	-1174
▁Му	-1175
бри	-1176
▁счита	-1177
▁Все	-1178
▁конце	-1179
▁сти	-1180
ници	-1181
▁женщи	-1182
рёх	-1183
el	-1184
▁защи	-1185
▁участ	-1186
шин	-1187
ческий	-1188
▁ту	-1189
вших	-1190
▁вместе	-1191
▁февраля	-1192
км	-1193
▁N	-1194
времен	-1195
▁поддер	-1196
▁называ	-1197
▁Вер	-1198
нер	-1199
▁ты	-1200
▁встре	-1201
▁действи	-1202
бя	-1203
веро	-1204
▁Население	-1205
▁уров	-1206
твер	-1207
▁Бу	-1208
каль	-1209
кла	-1210
кономи	-1211
▁круп	-1212
нача	-1213
кс	-1214
am	-1215
▁От	-1216
ro	-1217
▁Те	-1218
▁дивизи	-1219
чь	-1220
ший	-1221
▁Однако	-1222
▁бри	-1223
▁составляет	-1224
▁Ри	-1225
тельства	-1226
ведения	-1227
рами	-1228
жил	-1229
▁Фе	-1230
▁ан	-1231
▁ули	-1232
слен	-1233
▁включа	-1234
след	-1235
▁№	-1236
▁коми	-1237
▁участие	-1238
▁муж	-1239
▁возмо	-1240
▁f	-1241
▁выступа	-1242
▁Украи	-1243
▁гла	-1244
▁бере	-1245
▁H	-1246
▁однако	-1247
▁среди	-1248
жной	-1249
▁моло	-1250
ябре	-1251
▁карь	-1252
▁фут	-1253
▁V	-1254
вен	-1255
пада	-1256
нами	-1257
мом	-1258
▁уда	-1259
▁журна	-1260
ственно	-1261
зер	-1262
ходя	-1263
кола	-1264
ген	-1265
▁W	-1266
кви	-1267
▁соот	-1268
нова	-1269
риа	-1270
▁писа	-1271
скус	-1272
▁случа	-1273
▁дво	-1274
▁проис	-1275
▁которого	-1276
▁смер	-1277
▁строи	-1278
▁группы	-1279
▁разли	-1280
▁всех	-1281
цией	-1282
тие	-1283
кова	-1284
ватель	-1285
▁американ	-1286
доро	-1287
пас	-1288
▁сер	-1289
▁соб	-1290
тами	-1291
▁числе	-1292
▁Об	-1293
▁Лу	-1294
▁свою	-1295
шла	-1296
ору	-1297
строй	-1298
▁сте	-1299
▁опреде	-1300
мец	-1301
▁реги	-1302
▁переда	-1303
▁мини	-1304
того	-1305
▁самы	-1306
▁уе	-1307
▁площа	-1308
▁пя	-1309
дет	-1310
нен	-1311
вую	-1312
▁(;	-1313
мет	-1314
чного	-1315
менно	-1316
▁уби	-1317
▁постро	-1318
▁успе	-1319
ница	-1320
▁E	-1321
куль	-1322
чный	-1323
▁сту	-1324
мон	-1325
▁стре	-1326
▁стала	-1327
▁Ди	-1328
▁количе	-1329
дой	-1330
лены	-1331
▁губер	-1332
▁харак	-1333
ческие	-1334
▁ри	-1335
стя	-1336
▁стар	-1337
▁четы	-1338
▁доро	-1339
фер	-1340
чей	-1341
вается	-1342
хва	-1343
форма	-1344
тельство	-1345
▁фран	-1346
роме	-1347
▁поэ	-1348
ствии	-1349
щения	-1350
раб	-1351
▁своего	-1352
▁вс	-1353
▁жизни	-1354
нут	-1355
нах	-1356
ol	-1357
▁себя	-1358
▁производ	-1359
нский	-1360
▁годов	-1361
▁искус	-1362
▁сооб	-1363
седа	-1364
лев	-1365
жды	-1366
восто	-1367
▁этой	-1368
et	-1369
▁призна	-1370
▁соответ	-1371
▁институ	-1372
тре	-1373
прия	-1374
▁турни	-1375
il	-1376
▁эта	-1377
▁многи	-1378
лена	-1379
дена	-1380
▁теат	-1381
▁быть	-1382
шим	-1383
▁некоторы	-1384
▁объя	-1385
▁право	-1386
слав	-1387
стей	-1388
▁сере	-1389
▁деревня	-1390
▁Хо	-1391
пла	-1392
▁чем	-1393
ологи	-1394
тки	-1395
▁Вла	-1396
ню	-1397
▁городе	-1398
▁кол	-1399
▁Пи	-1400
шли	-1401
▁представи	-1402
▁начале	-1403
▁Ти	-1404
бира	-1405
▁административ	-1406
▁написа	-1407
лении	-1408
ган	-1409
тно	-1410
orm	-1411
▁бла	-1412
▁вне	-1413
сут	-1414
эн	-1415
тах	-1416
дера	-1417
гре	-1418
▁район	-1419
▁использу	-1420
льной	-1421
▁комп	-1422
▁род	-1423
▁армии	-1424
▁ско	-1425
▁свой	-1426
▁века	-1427
зии	-1428
кло	-1429
lt	-1430
сона	-1431
еди	-1432
тар	-1433
▁зда	-1434
▁данным	-1435
▁времени	-1436
▁игро	-1437
циали	-1438
▁отме	-1439
ствовал	-1440
тил	-1441
▁програм	-1442
▁элект	-1443
▁имени	-1444
▁восто	-1445
вании	-1446
▁тор	-1447
▁верну	-1448
▁дости	-1449
▁поль	-1450
▁тру	-1451
тора	-1452
▁истории	-1453
еспубли	-1454
дели	-1455
ula	-1456
▁сот	-1457
▁Пе	-1458
ствует	-1459
грал	-1460
▁направ	-1461
▁работы	-1462
щих	-1463
виси	-1464
хе	-1465
▁луч	-1466
▁опера	-1467
▁современ	-1468
▁работал	-1469
▁зая	-1470
лиз	-1471
▁ше	-1472
шь	-1473
ur	-1474
▁есть	-1475
ске	-1476
▁кино	-1477
▁всего	-1478
▁умер	-1479
▁Сред	-1480
▁Республи	-1481
лимпи	-1482
ждён	-1483
▁тран	-1484
вана	-1485
тал	-1486
▁матери	-1487
▁()	-1488
ion	-1489
▁одно	-1490
▁значи	-1491
▁дли	-1492
▁Его	-1493
▁голо	-1494
▁проек	-1495
▁россий	-1496
▁н	-1497
▁сист	-1498
бург	-1499
▁выше	-1500
▁возра	-1501
льных	-1502
виа	-1503
вшие	-1504
▁ци	-1505
▁отде	-1506
казыва	-1507
▁немец	-1508
▁человека	-1509
держа	-1510
вался	-1511
▁первый	-1512
▁("	-1513
▁вра	-1514
вори	-1515
▁установ	-1516
чина	-1517
▁управ	-1518
▁Бы	-1519
▁Сер	-1520
▁спи	-1521
ряд	-1522
▁фе	-1523
ниц	-1524
▁представля	-1525
▁служ	-1526
тный	-1527
пози	-1528
▁виде	-1529
▁разрабо	-1530
ormula	-1531
▁Ло	-1532
▁Также	-1533
мир	-1534
▁режи	-1535
▁помощ	-1536
▁наи	-1537
фика	-1538
om	-1539
▁этот	-1540
▁кан	-1541
▁обы	-1542
▁меся	-1543
▁прези	-1544
▁упо	-1545
▁день	-1546
вид	-1547
цуз	-1548
▁ры	-1549
▁награ	-1550
рд	-1551
чу	-1552
▁степ	-1553
ниципа	-1554
▁относи	-1555
▁Никола	-1556
▁заме	-1557
лок	-1558
фф	-1559
▁актив	-1560
ющим	-1561
дви	-1562
▁вз	-1563
первые	-1564
▁памя	-1565
gt	-1566
шки	-1567
струк	-1568
тому	-1569
Ка	-1570
дия	-1571
▁сов	-1572
ственный	-1573
тных	-1574
лением	-1575
▁позво	-1576
▁хра	-1577
там	-1578
ющего	-1579
матиче	-1580
▁Бер	-1581
ит	-1582
▁название	-1583
жей	-1584
▁пря	-1585
мено	-1586
раз	-1587
▁formula	-1588
тон	-1589
▁Влади	-1590
▁оконча	-1591
▁второй	-1592
▁пун	-1593
▁экономи	-1594
▁него	-1595
льного	-1596
▁переписи	-1597
▁имеет	-1598
▁дома	-1599
▁генера	-1600
рин	-1601
шие	-1602
as	-1603
▁связи	-1604
ch	-1605
ющей	-1606
▁литера	-1607
вшего	-1608
ток	-1609
тельной	-1610
▁бор	-1611
▁ша	-1612
чная	-1613
▁комму	-1614
▁(«	-1615
▁политиче	-1616
▁проце	-1617
▁выпол	-1618
▁показа	-1619
кти	-1620
готов	-1621
▁Ос	-1622
чё	-1623
▁можно	-1624
▁мона	-1625
▁хи	-1626
бле	-1627
ктора	-1628
▁село	-1629
▁Роди	-1630
▁совер	-1631
ил	-1632
▁акаде	-1633
лья	-1634
le	-1635
▁центра	-1636
пример	-1637
▁настоя	-1638
▁международ	-1639
▁ради	-1640
оло	-1641
лко	-1642
кая	-1643
сон	-1644
▁дела	-1645
вало	-1646
▁своих	-1647
прави	-1648
▁нео	-1649
хода	-1650
воз	-1651
чень	-1652
▁Согласно	-1653
▁течение	-1654
рию	-1655
йн	-1656
гом	-1657
▁№ 	-1658
re	-1659
тиво	-1660
▁желез	-1661
▁буду	-1662
зов	-1663
лист	-1664
нес	-1665
ницы	-1666
▁Аль	-1667
▁проф	-1668
бро	-1669
дан	-1670
туре	-1671
▁инте	-1672
▁фун	-1673
ваний	-1674
лено	-1675
▁Москов	-1676
un	-1677
мат	-1678
▁сотруд	-1679
▁руковод	-1680
жении	-1681
▁заклю	-1682
▁результате	-1683
▁Герма	-1684
сер	-1685
лн	-1686
▁началь	-1687
▁меда	-1688
▁миро	-1689
▁котором	-1690
▁бое	-1691
▁сборной	-1692
храни	-1693
▁назначен	-1694
ху	-1695
слови	-1696
▁акт	-1697
дра	-1698
волю	-1699
▁юго	-1700
▁стали	-1701
▁Лени	-1702
▁перед	-1703
цер	-1704
▁начала	-1705
▁муниципа	-1706
▁распро	-1707
▁слова	-1708
льный	-1709
ристи	-1710
▁ран	-1711
вей	-1712
▁собой	-1713
гер	-1714
▁образом	-1715
▁другие	-1716
ак	-1717
ессо	-1718
▁прожи	-1719
▁футбо	-1720
лина	-1721
кам	-1722
▁упра	-1723
бю	-1724
▁северо	-1725
шую	-1726
▁неза	-1727
▁север	-1728
▁II	-1729
▁оказа	-1730
рус	-1731
▁тан	-1732
▁кня	-1733
▁чего	-1734
кро	-1735
▁одним	-1736
рю	-1737
▁одной	-1738
▁анг	-1739
▁верси	-1740
ственных	-1741
дий	-1742
▁возмож	-1743
ing	-1744
руг	-1745
▁Ор	-1746
стри	-1747
▁Боль	-1748
пар	-1749
мости	-1750
▁сельского	-1751
щий	-1752
стана	-1753
вобо	-1754
▁Лю	-1755
▁гер	-1756
град	-1757
▁утвер	-1758
▁Украины	-1759
▁приз	-1760
▁фо	-1761
ступа	-1762
▁худож	-1763
▁принима	-1764
▁темпера	-1765
▁гражда	-1766
По	-1767
более	-1768
чки	-1769
▁могу	-1770
▁авиа	-1771
▁систе	-1772
рую	-1773
▁осу	-1774
каз	-1775
▁Че	-1776
▁лишь	-1777
пей	-1778
▁Миха	-1779
▁мы	-1780
мена	-1781
▁особ	-1782
льные	-1783
гой	-1784
▁ана	-1785
▁округа	-1786
▁хозяй	-1787
онов	-1788
тельных	-1789
▁страны	-1790
▁завер	-1791
рок	-1792
▁мене	-1793
бран	-1794
▁XV	-1795
▁француз	-1796
тета	-1797
▁смерти	-1798
ствие	-1799
▁представ	-1800
моби	-1801
▁возду	-1802
▁начал	-1803
▁поселения	-1804
▁выи	-1805
вались	-1806
id	-1807
▁Ис	-1808
▁Гу	-1809
▁фрон	-1810
▁Анд	-1811
▁диа	-1812
тый	-1813
▁обу	-1814
ственного	-1815
юз	-1816
шой	-1817
город	-1818
ссии	-1819
▁ино	-1820
▁часто	-1821
▁специаль	-1822
тай	-1823
мест	-1824
щение	-1825
▁две	-1826
гово	-1827
▁Пу	-1828
шее	-1829
десь	-1830
▁коло	-1831
шлен	-1832
▁Для	-1833
▁роль	-1834
▁ней	-1835
▁команды	-1836
вают	-1837
рования	-1838
▁Ту	-1839
ждение	-1840
▁предпо	-1841
▁живо	-1842
▁пример	-1843
▁География	-1844
бов	-1845
ложение	-1846
кта	-1847
доб	-1848
ющ	-1849
▁церков	-1850
▁официаль	-1851
щён	-1852
▁ост	-1853
чает	-1854
▁вопро	-1855
▁чемпионате	-1856
▁кур	-1857
▁учё	-1858
вления	-1859
жден	-1860
▁дире	-1861
▁входи	-1862
▁тыся	-1863
дя	-1864
▁организа	-1865
тики	-1866
жён	-1867
что	-1868
.,	-1869
гии	-1870
лой	-1871
▁воло	-1872
тек	-1873
ступил	-1874
▁способ	-1875
▁Ду	-1876
▁очень	-1877
▁войска	-1878
зма	-1879
▁сельсо	-1880
тет	-1881
▁сдела	-1882
грани	-1883
ктиче	-1884
▁укра	-1885
▁Оте	-1886
▁разме	-1887
тая	-1888
ac	-1889
мор	-1890
▁продолжа	-1891
ter	-1892
вода	-1893
тельного	-1894
▁трёх	-1895
▁изобра	-1896
пита	-1897
ныне	-1898
▁публи	-1899
▁сезона	-1900
▁гор	-1901
пода	-1902
▁меди	-1903
чер	-1904
цов	-1905
▁выбо	-1906
▁появи	-1907
▁клуб	-1908
▁первой	-1909
кое	-1910
▁Ша	-1911
зом	-1912
логии	-1913
▁попу	-1914
▁деся	-1915
▁интер	-1916
▁XI	-1917
▁Север	-1918
стом	-1919
пута	-1920
▁измен	-1921
▁широ	-1922
еха	-1923
шем	-1924
джа	-1925
▁Совет	-1926
нару	-1927
лимпий	-1928
▁влия	-1929
▁профессо	-1930
▁семей	-1931
▁проводи	-1932
▁тя	-1933
▁места	-1934
кции	-1935
▁обес	-1936
▁сим	-1937
▁церкви	-1938
▁Бра	-1939
вшей	-1940
стоян	-1941
За	-1942
гли	-1943
йти	-1944
дро	-1945
▁Пет	-1946
тельный	-1947
▁вид	-1948
мм	-1949
зах	-1950
▁даль	-1951
▁Вто	-1952
вле	-1953
вёл	-1954
еру	-1955
ез	-1956
▁стороны	-1957
тельные	-1958
▁оборо	-1959
▁команди	-1960
▁еди	-1961
▁могут	-1962
▁дет	-1963
▁Националь	-1964
▁собра	-1965
▁сц	-1966
▁количество	-1967
писко	-1968
▁Российской	-1969
▁обеспе	-1970
ческая	-1971
▁согла	-1972
▁даже	-1973
▁больше	-1974
▁Республики	-1975
▁арти	-1976
▁партии	-1977
 °	-1978
бом	-1979
▁примен	-1980
чным	-1981
лений	-1982
вели	-1983
▁впервые	-1984
▁смо	-1985
▁уг	-1986
сколь	-1987
▁поме	-1988
▁пози	-1989
▁сам	-1990
▁ору	-1991
рес	-1992
нения	-1993
▁стать	-1994
▁Кли	-1995
▁чу	-1996
▁пара	-1997
вести	-1998
▁(,	-1999
бай	-2000
нец	-2001
лда	-2002
▁струк	-2003
▁корпу	-2004
ведён	-2005
нием	-2006
▁университета	-2007
» —	-2008
▁оп	-2009
лл	-2010
▁общи	-2011
▁победи	-2012
▁группа	-2013
▁матче	-2014
▁народ	-2015
шло	-2016
надле	-2017
Ма	-2018
▁наук	-2019
сад	-2020
▁информа	-2021
▁Пра	-2022
дри	-2023
▁этих	-2024
▁председа	-2025
br	-2026
▁метров	-2027
они	-2028
ot	-2029
▁гру	-2030
эй	-2031
веден	-2032
дина	-2033
▁будет	-2034
Пе	-2035
▁менее	-2036
нет	-2037
▁тот	-2038
юза	-2039
▁запад	-2040
▁изу	-2041
рое	-2042
▁неболь	-2043
поль	-2044
▁Свя	-2045
▁O	-2046
ера	-2047
ьи	-2048
рого	-2049
вано	-2050
дного	-2051
▁взя	-2052
▁фильма	-2053
▁работ	-2054
тых	-2055
▁клуба	-2056
выми	-2057
лению	-2058
ствия	-2059
мотря	-2060
▁противо	-2061
мия	-2062
▁семье	-2063
▁Под	-2064
поли	-2065
▁пор	-2066
▁физи	-2067
▁дней	-2068
▁провин	-2069
▁моря	-2070
▁промы	-2071
▁t	-2072
фесси	-2073
▁прода	-2074
лью	-2075
▁компози	-2076
▁-	-2077
▁иск	-2078
▁ито	-2079
▁принадле	-2080
▁золо	-2081
▁несколь	-2082
ществ	-2083
▁треть	-2084
▁выра	-2085
▁дра	-2086
▁расска	-2087
▁U	-2088
▁расс	-2089
▁пов	-2090
нению	-2091
цами	-2092
ed	-2093
ана	-2094
ект	-2095
▁руководи	-2096
▁берегу	-2097
▁импе	-2098
▁Цент	-2099
жу	-2100
бора	-2101
▁Родился	-2102
▁тр	-2103
▁являются	-2104
ческое	-2105
скоре	-2106
скольку	-2107
пара	-2108
мию	-2109
▁Пере	-2110
▁опубли	-2111
▁тради	-2112
мана	-2113
бсо	-2114
чёт	-2115
вича	-2116
▁музыкаль	-2117
ad	-2118
сной	-2119
▁Кроме	-2120
ig	-2121
os	-2122
▁водо	-2123
▁услови	-2124
▁мя	-2125
▁Европы	-2126
чается	-2127
▁Чи	-2128
ал	-2129
жде	-2130
верх	-2131
обходи	-2132
▁выс	-2133
мин	-2134
тировал	-2135
мость	-2136
▁прин	-2137
▁самого	-2138
▁отдель	-2139
▁кли	-2140
вари	-2141
▁гре	-2142
▁возвра	-2143
▁импера	-2144
рым	-2145
▁K	-2146
форми	-2147
ровал	-2148
тной	-2149
ющая	-2150
лки	-2151
бсолю	-2152
▁зада	-2153
▁свобо	-2154
▁фло	-2155
дент	-2156
▁обнару	-2157
вили	-2158
▁компании	-2159
▁Франции	-2160
блю	-2161
вшая	-2162
послед	-2163
▁подписа	-2164
▁Ча	-2165
▁женщин	-2166
▁права	-2167
мар	-2168
евич	-2169
кор	-2170
стой	-2171
▁существо	-2172
дерации	-2173
зей	-2174
▁рав	-2175
▁описа	-2176
дно	-2177
ьер	-2178
▁стату	-2179
щие	-2180
▁d	-2181
▁поддерж	-2182
▁ходе	-2183
ктором	-2184
дида	-2185
▁одного	-2186
вов	-2187
стья	-2188
▁комплек	-2189
▁иде	-2190
▁Пред	-2191
▁отличи	-2192
▁пы	-2193
▁всё	-2194
ева	-2195
▁тео	-2196
▁Она	-2197
▁коллек	-2198
▁"«	-2199
▁чемпионата	-2200
▁расстоя	-2201
стру	-2202
лых	-2203
годаря	-2204
тика	-2205
чном	-2206
ia	-2207
of	-2208
новь	-2209
um	-2210
▁источ	-2211
▁села	-2212
▁командо	-2213
▁Совета	-2214
▁центр	-2215
▁фон	-2216
▁захва	-2217
and	-2218
▁похо	-2219
III	-2220
▁спу	-2221
ваться	-2222
▁которое	-2223
▁возгла	-2224
▁кораб	-2225
▁родился	-2226
▁необходи	-2227
мира	-2228
▁жителей	-2229
▁почти	-2230
▁персона	-2231
джи	-2232
▁начина	-2233
▁мето	-2234
▁%	-2235
▁Чер	-2236
▁оче	-2237
▁бан	-2238
ральной	-2239
▁детей	-2240
▁чер	-2241
▁&	-2242
шил	-2243
чеб	-2244
▁автомоби	-2245
▁власти	-2246
годах	-2247
▁сла	-2248
▁ну	-2249
▁каж	-2250
вёр	-2251
▁содержа	-2252
ланд	-2253
▁един	-2254
▁жизнь	-2255
▁пода	-2256
▁окончил	-2257
едини	-2258
▁если	-2259
зован	-2260
жный	-2261
▁Входит	-2262
▁примерно	-2263
▁школы	-2264
▁Кри	-2265
▁титу	-2266
числен	-2267
▁Ново	-2268
▁XX	-2269
нутрен	-2270
ровать	-2271
телями	-2272
▁контро	-2273
последствии	-2274
▁закон	-2275
▁команду	-2276
▁посвя	-2277
▁объек	-2278
▁килом	-2279
сок	-2280
▁Восто	-2281
▁сня	-2282
▁Ал	-2283
▁ог	-2284
▁ал	-2285
кар	-2286
▁экс	-2287
▁фильм	-2288
▁борь	-2289
▁селе	-2290
▁древ	-2291
лиза	-2292
▁Бар	-2293
▁контра	-2294
▁Ком	-2295
▁распростран	-2296
▁освобо	-2297
▁месте	-2298
▁создан	-2299
▁Германии	-2300
▁хоро	-2301
▁Куб	-2302
▁сезоне	-2303
▁вновь	-2304
жит	-2305
нок	-2306
▁исполни	-2307
▁препода	-2308
вез	-2309
▁альбом	-2310
▁губернии	-2311
▁доку	-2312
▁анти	-2313
▁рам	-2314
еты	-2315
Во	-2316
▁монасты	-2317
▁британ	-2318
▁фило	-2319
ir	-2320
▁организации	-2321
тые	-2322
жных	-2323
▁проте	-2324
деля	-2325
оте	-2326
▁исклю	-2327
▁Москве	-2328
ьера	-2329
▁честь	-2330
гна	-2331
▁стало	-2332
ванию	-2333
▁Отече	-2334
тник	-2335
чка	-2336
вшись	-2337
▁постоян	-2338
хан	-2339
фри	-2340
пов	-2341
писы	-2342
▁художе	-2343
▁Васи	-2344
im	-2345
▁брига	-2346
▁президен	-2347
▁электро	-2348
фессиональ	-2349
пор	-2350
▁Тур	-2351
▁основном	-2352
нев	-2353
Петер	-2354
▁осо	-2355
▁хотя	-2356
▁Ад	-2357
▁депута	-2358
▁игры	-2359
доста	-2360
▁) —	-2361
▁замести	-2362
виде	-2363
▁членом	-2364
▁дебю	-2365
▁момент	-2366
рального	-2367
▁Кор	-2368
▁кафе	-2369
▁там	-2370
▁факуль	-2371
▁реда	-2372
пли	-2373
▁системы	-2374
▁промышлен	-2375
▁сохрани	-2376
зь	-2377
лова	-2378
▁евро	-2379
▁социаль	-2380
бил	-2381
зем	-2382
▁частности	-2383
▁позд	-2384
ревно	-2385
тить	-2386
▁людей	-2387
риан	-2388
никами	-2389
ec	-2390
ent	-2391
▁собы	-2392
цент	-2393
тина	-2394
вляется	-2395
▁отли	-2396
▁режисс	-2397
ходят	-2398
спорт	-2399
▁работу	-2400
▁глу	-2401
кими	-2402
чался	-2403
нение	-2404
▁температура	-2405
▁должность	-2406
▁мор	-2407
▁Между	-2408
▁рода	-2409
▁экспе	-2410
Ко	-2411
▁культуры	-2412
шта	-2413
лый	-2414
▁присо	-2415
▁Поль	-2416
▁Ст	-2417
▁деятельность	-2418
▁населён	-2419
чён	-2420
ьё	-2421
▁евре	-2422
▁бро	-2423
▁Как	-2424
рет	-2425
▁эпи	-2426
▁собствен	-2427
лга	-2428
кур	-2429
пен	-2430
▁съ	-2431
▁класси	-2432
▁спор	-2433
▁Ио	-2434
чное	-2435
▁отнош	-2436
▁зи	-2437
валась	-2438
▁первого	-2439
▁отра	-2440
еры	-2441
нин	-2442
▁мировой	-2443
▁кандида	-2444
пании	-2445
▁Хар	-2446
▁попы	-2447
▁характери	-2448
▁обя	-2449
▁независи	-2450
▁таких	-2451
шу	-2452
▁полови	-2453
▁большин	-2454
▁типа	-2455
▁Нью	-2456
▁проходи	-2457
зм	-2458
чал	-2459
кса	-2460
▁револю	-2461
▁секре	-2462
▁аре	-2463
▁своим	-2464
▁четыре	-2465
▁твор	-2466
▁тек	-2467
▁Ги	-2468
▁наро	-2469
▁возрасте	-2470
▁стро	-2471
▁ата	-2472
▁Ита	-2473
риаль	-2474
▁Государ	-2475
▁Велико	-2476
▁имя	-2477
▁названием	-2478
тором	-2479
ями	-2480
▁предприя	-2481
лиги	-2482
▁образования	-2483
мб	-2484
od	-2485
▁говори	-2486
тего	-2487
▁поги	-2488
вила	-2489
рос	-2490
▁различных	-2491
▁популяр	-2492
▁медици	-2493
муще	-2494
спи	-2495
▁находя	-2496
рец	-2497
▁получила	-2498
▁генерал	-2499
воль	-2500
лого	-2501
▁ним	-2502
▁здесь	-2503
▁Санкт	-2504
▁степени	-2505
▁произо	-2506
▁нескольких	-2507
▁тысяч	-2508
лях	-2509
ай	-2510
▁Пари	-2511
▁восста	-2512
▁пунк	-2513
▁наиболее	-2514
лами	-2515
▁первым	-2516
▁рамках	-2517
▁Основ	-2518
чены	-2519
▁Й	-2520
▁кам	-2521
ствуют	-2522
▁воору	-2523
▁XIX	-2524
ческим	-2525
▁внутрен	-2526
▁Среди	-2527
▁середи	-2528
▁Ленин	-2529
чением	-2530
▁Глав	-2531
▁прибы	-2532
вале	-2533
туа	-2534
▁отсут	-2535
рует	-2536
▁площадь	-2537
▁сме	-2538
▁советский	-2539
▁„	-2540
емых	-2541
▁поки	-2542
▁ат	-2543
▁доста	-2544
▁вышел	-2545
▁управления	-2546
▁настоящее	-2547
кин	-2548
▁вели	-2549
парта	-2550
юр	-2551
лка	-2552
дова	-2553
рав	-2554
матри	-2555
льная	-2556
▁Рас	-2557
▁Олимпий	-2558
▁Федерации	-2559
▁располага	-2560
льное	-2561
▁англий	-2562
▁Ген	-2563
▁допол	-2564
ложи	-2565
На	-2566
▁завое	-2567
▁Анг	-2568
▁осуществ	-2569
▁милли	-2570
▁участвовал	-2571
▁многих	-2572
жал	-2573
².	-2574
хозяй	-2575
▁рес	-2576
▁брон	-2577
мого	-2578
▁матча	-2579
▁упомина	-2580
дё	-2581
▁подготов	-2582
▁тё	-2583
▁финан	-2584
еть	-2585
▁дивизии	-2586
▁своё	-2587
▁Отечественной	-2588
st	-2589
▁Великой	-2590
▁кру	-2591
▁альбома	-2592
ut	-2593
дах	-2594
част	-2595
▁специали	-2596
▁прекра	-2597
вонача	-2598
ум	-2599
▁кры	-2600
рование	-2601
▁бассе	-2602
сей	-2603
▁кана	-2604
▁поле	-2605
▁Прези	-2606
▁уезда	-2607
рения	-2608
▁которую	-2609
▁проду	-2610
);	-2611
▁St	-2612
▁войск	-2613
▁Верхов	-2614
▁нем	-2615
▁серии	-2616
дами	-2617
▁республи	-2618
мая	-2619
лые	-2620
▁линии	-2621
▁позволя	-2622
▁принял	-2623
▁пора	-2624
▁наблю	-2625
валось	-2626
▁провёл	-2627
ус	-2628
клад	-2629
▁поста	-2630
▁вернулся	-2631
тании	-2632
чески	-2633
брь	-2634
стр	-2635
▁Мини	-2636
зербай	-2637
▁посёл	-2638
▁зву	-2639
фици	-2640
вшим	-2641
рам	-2642
▁раст	-2643
ra	-2644
▁полностью	-2645
ческом	-2646
▁меха	-2647
▁Коро	-2648
▁Мон	-2649
▁запа	-2650
вление	-2651
тная	-2652
▁шо	-2653
▁пси	-2654
op	-2655
▁радио	-2656
▁реш	-2657
▁поскольку	-2658
пан	-2659
южет	-2660
▁остро	-2661
▁ори	-2662
▁близ	-2663
тка	-2664
▁J	-2665
▁дальней	-2666
▁кафед	-2667
▁входит	-2668
раи	-2669
сан	-2670
▁позже	-2671
▁стран	-2672
нодоро	-2673
▁сопро	-2674
нам	-2675
▁клад	-2676
▁скоро	-2677
▁Они	-2678
»).	-2679
▁число	-2680
▁соревно	-2681
рово	-2682
▁Рабо	-2683
гг	-2684
▁ограни	-2685
езд	-2686
▁учили	-2687
менталь	-2688
менты	-2689
▁Май	-2690
лах	-2691
▁сын	-2692
▁станови	-2693
▁срав	-2694
пись	-2695
▁слож	-2696
тного	-2697
▁ответ	-2698
тию	-2699
▁украин	-2700
▁тогда	-2701
оз	-2702
▁материа	-2703
тым	-2704
▁ряд	-2705
▁область	-2706
▁выступи	-2707
▁Климат	-2708
▁холо	-2709
▁руководством	-2710
▁профессиональ	-2711
ффек	-2712
▁концер	-2713
▁Раз	-2714
▁крити	-2715
тания	-2716
▁выз	-2717
▁облада	-2718
▁инжен	-2719
тона	-2720
гие	-2721
▁деревни	-2722
гам	-2723
▁Второй	-2724
пере	-2725
гель	-2726
сен	-2727
▁лей	-2728
▁расстоянии	-2729
▁нас	-2730
нологи	-2731
▁совмест	-2732
док	-2733
ктически	-2734
▁Джо	-2735
▁общества	-2736
бере	-2737
слов	-2738
▁основан	-2739
▁станции	-2740
▁уста	-2741
▁объедин	-2742
ow	-2743
тельное	-2744
▁музе	-2745
▁(),	-2746
em	-2747
ментов	-2748
▁одна	-2749
▁Был	-2750
▁of	-2751
▁пись	-2752
ерт	-2753
▁закры	-2754
▁роли	-2755
▁Великобри	-2756
▁Гри	-2757
▁полка	-2758
ложения	-2759
▁производи	-2760
▁аэ	-2761
лёт	-2762
▁Джон	-2763
iv	-2764
▁дер	-2765
Ро	-2766
▁себе	-2767
▁пробле	-2768
▁мет	-2769
▁учеб	-2770
эр	-2771
новре	-2772
дор	-2773
▁фото	-2774
жного	-2775
▁пяти	-2776
▁непо	-2777
▁колле	-2778
▁Запад	-2779
▁империи	-2780
▁случае	-2781
▁двига	-2782
дже	-2783
▁Сем	-2784
менем	-2785
▁[	-2786
▁множе	-2787
▁Япо	-2788
▁песни	-2789
▁Пар	-2790
▁уничто	-2791
дца	-2792
▁например	-2793
ов	-2794
▁включая	-2795
▁Дже	-2796
▁Гра	-2797
▁очеред	-2798
▁отказа	-2799
зопас	-2800
▁приоб	-2801
▁помощью	-2802
ферен	-2803
▁Амери	-2804
▁конца	-2805
ard	-2806
▁ранее	-2807
▁оте	-2808
▁компания	-2809
▁некоторые	-2810
▁Лон	-2811
▁Союза	-2812
▁перешёл	-2813
▁игр	-2814
▁регу	-2815
ума	-2816
тации	-2817
▁нес	-2818
▁основе	-2819
креп	-2820
▁попа	-2821
▁деревне	-2822
▁уси	-2823
▁совета	-2824
нией	-2825
образ	-2826
▁некоторых	-2827
▁многие	-2828
века	-2829
хран	-2830
▁Затем	-2831
▁национальной	-2832
▁сельсовета	-2833
цей	-2834
▁обе	-2835
зова	-2836
▁Когда	-2837
круг	-2838
▁−	-2839
▁дом	-2840
▁озе	-2841
циях	-2842
▁рей	-2843
ваются	-2844
▁Ши	-2845
▁мужчин	-2846
▁связан	-2847
▁Ир	-2848
рудо	-2849
▁маши	-2850
▁Гор	-2851
▁деятельности	-2852
▁убий	-2853
нику	-2854
Со	-2855
▁опублико	-2856
▁первых	-2857
ново	-2858
тельным	-2859
▁еписко	-2860
▁отправи	-2861
▁решение	-2862
▁долла	-2863
▁команд	-2864
вить	-2865
▁мир	-2866
▁катего	-2867
▁успеш	-2868
▁военно	-2869
▁особенно	-2870
▁функ	-2871
▁носи	-2872
Мо	-2873
ющее	-2874
нских	-2875
жан	-2876
▁острова	-2877
▁удалось	-2878
▁отношения	-2879
▁протя	-2880
ведение	-2881
гина	-2882
тные	-2883
▁бес	-2884
вли	-2885
▁Александр	-2886
▁четырёх	-2887
▁зе	-2888
▁низ	-2889
▁указа	-2890
▁месяца	-2891
гры	-2892
▁форма	-2893
рского	-2894
торов	-2895
▁италь	-2896
кую	-2897
▁мощ	-2898
▁библи	-2899
близи	-2900
▁новый	-2901
ation	-2902
▁прис	-2903
▁Воз	-2904
▁Фа	-2905
льным	-2906
▁нор	-2907
▁зако	-2908
ционной	-2909
▁энер	-2910
▁такие	-2911
▁внима	-2912
▁форми	-2913
чную	-2914
▁The	-2915
▁железнодоро	-2916
лян	-2917
▁филосо	-2918
▁сказа	-2919
ковой	-2920
нул	-2921
рина	-2922
▁кладби	-2923
▁контракт	-2924
циа	-2925
▁образ	-2926
▁пыта	-2927
▁образование	-2928
зон	-2929
▁«"	-2930
▁().	-2931
▁важ	-2932
▁студен	-2933
▁стрелко	-2934
▁окончания	-2935
▁избран	-2936
▁Кур	-2937
»)	-2938
▁благо	-2939
▁япо	-2940
▁нём	-2941
▁выступал	-2942
▁In	-2943
▁самых	-2944
мос	-2945
читы	-2946
чай	-2947
▁автор	-2948
вё	-2949
ёлок	-2950
▁выступ	-2951
▁расши	-2952
▁веду	-2953
▁развития	-2954
▁c	-2955
▁благодаря	-2956
▁столи	-2957
▁церковь	-2958
шка	-2959
говор	-2960
стью	-2961
▁население	-2962
▁Ива	-2963
запад	-2964
▁академии	-2965
▁Международ	-2966
▁имеют	-2967
▁уровнем	-2968
▁гвар	-2969
▁другой	-2970
ственным	-2971
▁присут	-2972
гани	-2973
новременно	-2974
▁пересе	-2975
▁ей	-2976
тех	-2977
▁вну	-2978
рис	-2979
тья	-2980
▁сыграл	-2981
▁выпуска	-2982
ристиан	-2983
фина	-2984
▁корот	-2985
ябрь	-2986
▁оцен	-2987
ландии	-2988
▁университете	-2989
▁участво	-2990
тили	-2991
мокра	-2992
ag	-2993
▁языка	-2994
доль	-2995
ссы	-2996
▁выну	-2997
падает	-2998
▁тон	-2999
▁которым	-3000
анта	-3001
▁края	-3002
▁видов	-3003
▁артилле	-3004
▁система	-3005
казом	-3006
дон	-3007
▁Казах	-3008
▁характер	-3009
зен	-3010
▁учре	-3011
▁дебютировал	-3012
жё	-3013
руется	-3014
оном	-3015
▁цар	-3016
▁самолё	-3017
▁института	-3018
▁Бело	-3019
▁мастер	-3020
заи	-3021
▁нового	-3022
ис	-3023
ческую	-3024
▁обычно	-3025
▁связа	-3026
▁внеш	-3027
▁III	-3028
▁солда	-3029
▁государства	-3030
▁требо	-3031
даго	-3032
ань	-3033
▁поэтому	-3034
▁прод	-3035
▁школе	-3036
▁январе	-3037
сем	-3038
▁мнению	-3039
▁Олимпийских	-3040
стоит	-3041
чена	-3042
▁кос	-3043
▁архитек	-3044
вии	-3045
чении	-3046
чено	-3047
▁команда	-3048
▁тро	-3049
бин	-3050
▁гон	-3051
▁Мин	-3052
▁симво	-3053
▁Тем	-3054
▁исследования	-3055
Са	-3056
нике	-3057
мум	-3058
▁разре	-3059
▁неу	-3060
▁ССР	-3061
▁сериа	-3062
гру	-3063
▁выда	-3064
еня	-3065
▁Дми	-3066
▁уз	-3067
▁Уи	-3068
▁сентябре	-3069
▁Констан	-3070
▁Ана	-3071
лип	-3072
▁языке	-3073
▁РС	-3074
▁мень	-3075
▁реали	-3076
▁пригла	-3077
носи	-3078
▁граф	-3079
▁построен	-3080
▁проя	-3081
▁самым	-3082
щена	-3083
▁школу	-3084
ина	-3085
▁искусства	-3086
йского	-3087
▁ордена	-3088
▁заве	-3089
их	-3090
мень	-3091
▁версии	-3092
▁Ев	-3093
▁карьеру	-3094
▁марте	-3095
гро	-3096
▁Чере	-3097
гля	-3098
▁Джей	-3099
▁карти	-3100
имено	-3101
▁европей	-3102
▁культур	-3103
Йор	-3104
▁перееха	-3105
▁пехо	-3106
ётся	-3107
▁происхо	-3108
суль	-3109
▁Сте	-3110
хом	-3111
фон	-3112
запа	-3113
▁мае	-3114
▁вет	-3115
▁движения	-3116
стров	-3117
»),	-3118
▁разде	-3119
стин	-3120
нице	-3121
лам	-3122
The	-3123
вян	-3124
ционных	-3125
▁долларов	-3126
ственные	-3127
oc	-3128
▁работе	-3129
жением	-3130
▁земли	-3131
▁Нес	-3132
лк	-3133
▁пост	-3134
▁Кали	-3135
▁Y	-3136
▁мог	-3137
▁занял	-3138
строи	-3139
рем	-3140
роят	-3141
▁безопас	-3142
йо	-3143
▁чемпион	-3144
▁Красно	-3145
тической	-3146
▁должен	-3147
▁опы	-3148
▁обозна	-3149
▁воздуха	-3150
▁Мак	-3151
▁Бри	-3152
били	-3153
▁сцена	-3154
▁нару	-3155
▁Ке	-3156
▁Дан	-3157
▁Ху	-3158
ренер	-3159
▁спортив	-3160
чего	-3161
▁иностран	-3162
дино	-3163
▁сборную	-3164
▁декабре	-3165
▁главным	-3166
чик	-3167
▁должности	-3168
▁дня	-3169
лега	-3170
▁большо	-3171
▁Распо	-3172
мимо	-3173
кет	-3174
▁поддержи	-3175
▁неиз	-3176
сток	-3177
▁играх	-3178
влен	-3179
Бо	-3180
фли	-3181
треб	-3182
ёра	-3183
▁неё	-3184
тинен	-3185
▁происходит	-3186
▁другими	-3187
▁выигра	-3188
▁серебря	-3189
туру	-3190
вато	-3191
▁Вен	-3192
▁упразд	-3193
▁правитель	-3194
▁первом	-3195
писание	-3196
▁августе	-3197
жная	-3198
вел	-3199
▁октябре	-3200
мати	-3201
▁край	-3202
цем	-3203
▁Рус	-3204
▁Кана	-3205
▁союз	-3206
жать	-3207
▁провинции	-3208
голь	-3209
чины	-3210
▁Гре	-3211
▁вариан	-3212
. —	-3213
лер	-3214
▁нет	-3215
ок	-3216
▁бит	-3217
▁др	-3218
ясь	-3219
▁Эти	-3220
▁обеспечи	-3221
▁религи	-3222
▁оби	-3223
▁действия	-3224
пря	-3225
")	-3226
чными	-3227
▁снова	-3228
▁ап	-3229
цкого	-3230
▁техниче	-3231
▁пле	-3232
▁университет	-3233
▁суд	-3234
▁королев	-3235
▁частью	-3236
▁трене	-3237
▁ката	-3238
▁отря	-3239
ронен	-3240
▁выпущен	-3241
▁Дере	-3242
▁осуществля	-3243
▁Хи	-3244
ссер	-3245
▁возник	-3246
▁либо	-3247
▁Владимир	-3248
▁рабочи	-3249
▁р	-3250
▁пять	-3251
зуется	-3252
▁целью	-3253
▁свиде	-3254
▁повы	-3255
нюю	-3256
▁семьи	-3257
▁Пло	-3258
▁парла	-3259
▁разру	-3260
▁конкур	-3261
▁бли	-3262
▁потом	-3263
▁имел	-3264
▁эффек	-3265
▁Окон	-3266
ционного	-3267
пом	-3268
▁большой	-3269
чет	-3270
▁июле	-3271
раба	-3272
▁удо	-3273
▁прямой	-3274
▁утвержда	-3275
▁всей	-3276
пархи	-3277
▁создания	-3278
▁КП	-3279
▁бассей	-3280
луб	-3281
зин	-3282
сного	-3283
▁макси	-3284
▁духов	-3285
▁библиоте	-3286
мых	-3287
Па	-3288
жай	-3289
▁газ	-3290
▁орден	-3291
▁мире	-3292
шед	-3293
▁погиб	-3294
▁Первый	-3295
▁син	-3296
▁составляли	-3297
щем	-3298
вшихся	-3299
▁городского	-3300
гну	-3301
дной	-3302
кает	-3303
▁волости	-3304
ёром	-3305
имуще	-3306
▁присво	-3307
▁заво	-3308
▁результатам	-3309
▁продолжи	-3310
тацию	-3311
▁оружи	-3312
ющими	-3313
▁Нор	-3314
▁Андре	-3315
чем	-3316
▁запре	-3317
▁чел	-3318
▁вскоре	-3319
▁выпусти	-3320
ющем	-3321
▁производства	-3322
бурге	-3323
нял	-3324
▁реко	-3325
▁завод	-3326
▁преступ	-3327
▁согласно	-3328
▁играл	-3329
▁выстав	-3330
теря	-3331
▁забо	-3332
лым	-3333
▁поверх	-3334
▁крепо	-3335
▁язык	-3336
▁короля	-3337
лон	-3338
▁своём	-3339
▁переимено	-3340
▁чёр	-3341
▁сил	-3342
▁Тер	-3343
сред	-3344
лье	-3345
▁российский	-3346
▁плани	-3347
▁баталь	-3348
▁Италии	-3349
▁Верховного	-3350
▁тай	-3351
▁новых	-3352
мьер	-3353
▁перево	-3354
▁еже	-3355
▁–	-3356
▁верх	-3357
стях	-3358
▁отца	-3359
▁ото	-3360
▁ск	-3361
щим	-3362
▁зависи	-3363
▁бога	-3364
пру	-3365
▁профессор	-3366
▁Несмотря	-3367
▁звание	-3368
▁свет	-3369
▁тому	-3370
▁испы	-3371
зирован	-3372
▁записа	-3373
▁кладбище	-3374
тельность	-3375
́н	-3376
▁the	-3377
эт	-3378
▁июне	-3379
▁именно	-3380
▁подо	-3381
печа	-3382
эль	-3383
бина	-3384
▁сторон	-3385
вляет	-3386
Си	-3387
▁Эн	-3388
▁впоследствии	-3389
ковых	-3390
▁бой	-3391
няется	-3392
▁млад	-3393
ссия	-3394
▁полити	-3395
▁театра	-3396
▁встреча	-3397
▁находился	-3398
▁Жи	-3399
▁ново	-3400
▁Кубка	-3401
вшийся	-3402
▁устрой	-3403
ou	-3404
▁Чем	-3405
▁ныне	-3406
▁каза	-3407
▁двумя	-3408
сед	-3409
ваны	-3410
чности	-3411
▁состоит	-3412
рот	-3413
▁уве	-3414
▁первые	-3415
▁эпо	-3416
▁забил	-3417
▁просто	-3418
фикации	-3419
▁представляет	-3420
▁этим	-3421
▁проект	-3422
дам	-3423
ральный	-3424
▁ноябре	-3425
▁относится	-3426
▁карьера	-3427
циона	-3428
млн	-3429
тива	-3430
чению	-3431
▁апреле	-3432
ae	-3433
▁Акаде	-3434
▁фильме	-3435
мель	-3436
езда	-3437
▁озна	-3438
ФСР	-3439
▁Дру	-3440
▁разо	-3441
роди	-3442
▁геро	-3443
Ми	-3444
▁восстанов	-3445
▁Вар	-3446
▁молодё	-3447
▁труд	-3448
▁памят	-3449
▁сезон	-3450
▁матчей	-3451
▁составляло	-3452
сия	-3453
гей	-3454
▁Этот	-3455
▁феврале	-3456
▁весь	-3457
▁доба	-3458
мах	-3459
▁сни	-3460
▁тю	-3461
▁дополни	-3462
пусти	-3463
▁Институ	-3464
▁учени	-3465
▁здания	-3466
ционный	-3467
рыв	-3468
▁книги	-3469
лог	-3470
жений	-3471
▁сыгра	-3472
▁бронзо	-3473
▁прав	-3474
▁руб	-3475
▁уго	-3476
▁предела	-3477
▁числен	-3478
▁премии	-3479
▁футболист	-3480
емые	-3481
▁Им	-3482
▁принадлежа	-3483
зже	-3484
▁подвер	-3485
▁эту	-3486
▁ска	-3487
▁эпизо	-3488
▁Фор	-3489
▁середине	-3490
служи	-3491
▁РСФСР	-3492
тельная	-3493
▁Мор	-3494
Но	-3495
▁Азербай	-3496
емый	-3497
▁Дэ	-3498
мера	-3499
▁полно	-3500
▁первую	-3501
коль	-3502
▁службу	-3503
▁итоге	-3504
▁педаго	-3505
▁Великобритании	-3506
точно	-3507
▁кажды	-3508
▁цвет	-3509
надца	-3510
▁сре	-3511
▁крупней	-3512
▁правительства	-3513
▁све	-3514
▁герцо	-3515
▁титул	-3516
▁мало	-3517
вня	-3518
▁избира	-3519
▁словам	-3520
▁Министер	-3521
..	-3522
евского	-3523
▁силы	-3524
▁меня	-3525
▁массо	-3526
ленных	-3527
▁применя	-3528
рована	-3529
▁разных	-3530
▁состоянию	-3531
▁фигу	-3532
▁женщины	-3533
▁позволи	-3534
ay	-3535
▁корпуса	-3536
▁противника	-3537
дил	-3538
▁Описание	-3539
▁кто	-3540
▁Занима	-3541
ссу	-3542
▁быстро	-3543
▁поступил	-3544
фра	-3545
▁Эр	-3546
разде	-3547
▁возможность	-3548
▁Бла	-3549
▁отец	-3550
торы	-3551
хар	-3552
см	-3553
▁Ch	-3554
держи	-3555
▁ква	-3556
ково	-3557
▁подтвер	-3558
▁замен	-3559
▁граждан	-3560
▁соедин	-3561
▁класса	-3562
▁постанов	-3563
▁Аб	-3564
шан	-3565
лло	-3566
▁здание	-3567
▁Геор	-3568
▁реши	-3569
Ба	-3570
рест	-3571
▁Кан	-3572
▁присоедини	-3573
▁рассматри	-3574
ie	-3575
▁ситуа	-3576
▁рее	-3577
▁Кла	-3578
ковского	-3579
▁дороги	-3580
▁Александра	-3581
▁колхо	-3582
▁Пав	-3583
щества	-3584
▁пока	-3585
КА	-3586
тино	-3587
▁сум	-3588
▁брат	-3589
рович	-3590
эм	-3591
льм	-3592
гия	-3593
▁РФ	-3594
ходится	-3595
▁возможно	-3596
▁Генри	-3597
▁преимуще	-3598
▁другим	-3599
катери	-3600
▁конструк	-3601
▁Уни	-3602
цом	-3603
▁Зем	-3604
▁спорта	-3605
▁диссер	-3606
▁православ	-3607
▁протяжении	-3608
est	-3609
▁вышла	-3610
начала	-3611
▁должны	-3612
▁бю	-3613
цкий	-3614
▁цен	-3615
▁русские	-3616
▁институт	-3617
▁службы	-3618
▁позиции	-3619
пуска	-3620
▁мета	-3621
влял	-3622
нил	-3623
▁Административ	-3624
нён	-3625
ссоциа	-3626
льд	-3627
луа	-3628
▁посёлок	-3629
▁президент	-3630
▁Сы	-3631
▁четвёр	-3632
▁торго	-3633
Ра	-3634
▁форму	-3635
▁Ше	-3636
▁второго	-3637
ёв	-3638
рик	-3639
мян	-3640
▁осад	-3641
толи	-3642
▁таким	-3643
енси	-3644
ницей	-3645
воначально	-3646
шру	-3647
▁убе	-3648
▁интере	-3649
▁Гру	-3650
▁s	-3651
▁домаш	-3652
▁+	-3653
▁творче	-3654
циалисти	-3655
щении	-3656
▁Ленинград	-3657
сил	-3658
▁умеренно	-3659
▁печа	-3660
риса	-3661
деб	-3662
▁летом	-3663
▁удосто	-3664
▁Вол	-3665
цени	-3666
▁проекта	-3667
▁используется	-3668
щены	-3669
▁люби	-3670
▁коммуны	-3671
▁континен	-3672
под	-3673
▁часов	-3674
▁Гар	-3675
▁спорт	-3676
▁помощи	-3677
кончался	-3678
мое	-3679
доне	-3680
▁войне	-3681
доров	-3682
▁преобра	-3683
▁Рей	-3684
ers	-3685
▁дочь	-3686
бир	-3687
▁многочислен	-3688
роз	-3689
тке	-3690
сам	-3691
▁Чемпи	-3692
лая	-3693
▁Робер	-3694
сных	-3695
og	-3696
▁Наз	-3697
▁операции	-3698
▁инстру	-3699
▁последу	-3700
ственное	-3701
▁произведения	-3702
негодо	-3703
▁положение	-3704
щается	-3705
▁суб	-3706
▁Через	-3707
▁Ман	-3708
▁жан	-3709
твор	-3710
▁турнира	-3711
▁/	-3712
▁литератур	-3713
▁служил	-3714
▁ред	-3715
▁видео	-3716
▁километров	-3717
▁новой	-3718
▁микро	-3719
▁полк	-3720
ственная	-3721
▁тренер	-3722
▁написал	-3723
▁причи	-3724
ул	-3725
▁секрета	-3726
тисти	-3727
▁бло	-3728
▁сна	-3729
ведений	-3730
▁архите	-3731
Го	-3732
сный	-3733
»"	-3734
кер	-3735
▁лег	-3736
▁капита	-3737
▁двор	-3738
▁празд	-3739
▁порт	-3740
▁заявил	-3741
▁центром	-3742
▁футболь	-3743
▁практи	-3744
шает	-3745
▁сай	-3746
▁отличие	-3747
▁школа	-3748
▁роман	-3749
▁доступ	-3750
▁определён	-3751
▁простран	-3752
▁периода	-3753
▁Деревня	-3754
amp	-3755
▁пути	-3756
▁гим	-3757
▁турнире	-3758
тирован	-3759
мок	-3760
вшиеся	-3761
▁юри	-3762
пой	-3763
ям	-3764
берг	-3765
ровали	-3766
бан	-3767
▁данных	-3768
▁лё	-3769
▁ниж	-3770
▁доче	-3771
▁подоб	-3772
▁наблюда	-3773
джан	-3774
▁воды	-3775
▁поряд	-3776
▁пти	-3777
сами	-3778
▁округ	-3779
▁шах	-3780
▁десяти	-3781
▁фести	-3782
мби	-3783
▁спа	-3784
ксу	-3785
кульп	-3786
служен	-3787
▁приро	-3788
▁отве	-3789
▁психо	-3790
льского	-3791
▁Член	-3792
▁доктор	-3793
▁Коми	-3794
▁этому	-3795
▁отда	-3796
лект	-3797
▁комитета	-3798
▁завода	-3799
▁Джа	-3800
▁принци	-3801
▁становится	-3802
▁стране	-3803
▁p	-3804
▁государственный	-3805
рги	-3806
▁вероят	-3807
▁Наи	-3808
▁Австра	-3809
▁Позже	-3810
▁реаль	-3811
тчи	-3812
▁Кара	-3813
▁Екатери	-3814
▁Зе	-3815
тана	-3816
▁вместо	-3817
купа	-3818
▁яр	-3819
ce	-3820
бок	-3821
▁Ниж	-3822
тельности	-3823
▁начало	-3824
▁спустя	-3825
гах	-3826
▁сформи	-3827
кров	-3828
няет	-3829
жены	-3830
Ве	-3831
▁сына	-3832
▁Первой	-3833
гип	-3834
▁Ря	-3835
▁друг	-3836
▁полков	-3837
▁награждён	-3838
уре	-3839
луч	-3840
▁итальян	-3841
▁обороны	-3842
рай	-3843
стром	-3844
▁внимание	-3845
гами	-3846
▁Тре	-3847
рией	-3848
варти	-3849
▁Фри	-3850
вно	-3851
жные	-3852
ap	-3853
▁конфли	-3854
ill	-3855
▁потеря	-3856
▁поко	-3857
▁охра	-3858
▁сразу	-3859
Ме	-3860
▁работать	-3861
▁иногда	-3862
▁организо	-3863
▁покры	-3864
▁училище	-3865
▁получа	-3866
▁президента	-3867
▁Умер	-3868
▁определя	-3869
▁счё	-3870
▁новые	-3871
ложил	-3872
леко	-3873
▁технологи	-3874
▁главного	-3875
▁чув	-3876
нициа	-3877
▁христиан	-3878
▁аресто	-3879
▁Фо	-3880
▁Фер	-3881
▁рядом	-3882
▁семейства	-3883
ницу	-3884
меча	-3885
шён	-3886
стьян	-3887
▁уро	-3888
щает	-3889
▁относя	-3890
▁ман	-3891
▁аэро	-3892
▁членов	-3893
▁влад	-3894
виду	-3895
ссажи	-3896
▁Англии	-3897
▁рез	-3898
▁штат	-3899
бсолютный	-3900
ri	-3901
▁Среднегодо	-3902
▁вол	-3903
тивных	-3904
▁епархи	-3905
ord	-3906
▁начали	-3907
▁стандар	-3908
▁Японии	-3909
▁журнала	-3910
▁Послед	-3911
тое	-3912
▁неф	-3913
питан	-3914
▁получили	-3915
▁ца	-3916
 %.	-3917
нить	-3918
ждении	-3919
▁улица	-3920
▁разно	-3921
Лу	-3922
▁Уилья	-3923
ud	-3924
лию	-3925
▁практически	-3926
которые	-3927
вере	-3928
▁путе	-3929
▁вен	-3930
кли	-3931
▁река	-3932
▁выиграл	-3933
▁тела	-3934
ологии	-3935
лит	-3936
▁газе	-3937
▁очередь	-3938
коми	-3939
▁матч	-3940
▁Карьера	-3941
▁улицы	-3942
▁академи	-3943
▁музыкан	-3944
▁соответствии	-3945
плуа	-3946
сах	-3947
▁писал	-3948
▁песня	-3949
зия	-3950
ub	-3951
ав	-3952
льном	-3953
▁состава	-3954
▁оригина	-3955
▁безопасности	-3956
▁песен	-3957
▁Шу	-3958
▁Московской	-3959
▁коне	-3960
так	-3961
▁Чу	-3962
лета	-3963
▁Израи	-3964
тельную	-3965
▁Москвы	-3966
▁взаи	-3967
роб	-3968
▁люди	-3969
▁относительно	-3970
береж	-3971
▁предполага	-3972
▁предпри	-3973
▁собира	-3974
▁центре	-3975
▁Если	-3976
▁экспеди	-3977
пания	-3978
▁структуре	-3979
▁дел	-3980
▁длин	-3981
▁одном	-3982
▁m	-3983
▁объяс	-3984
нять	-3985
▁религиоз	-3986
▁атмос	-3987
▁программы	-3988
▁главе	-3989
▁сокра	-3990
▁клю	-3991
стями	-3992
▁расположена	-3993
▁правительство	-3994
тических	-3995
▁вынужден	-3996
гар	-3997
вок	-3998
циями	-3999
▁сан	-4000
▁пои	-4001
▁зам	-4002
рит	-4003
▁некото	-4004
▁тяжё	-4005
▁Северной	-4006
▁предо	-4007
▁влияние	-4008
th	-4009
мым	-4010
▁маршру	-4011
▁мате	-4012
ьёз	-4013
жо	-4014
▁статус	-4015
кана	-4016
шев	-4017
▁прото	-4018
▁скульп	-4019
ov	-4020
гор	-4021
или	-4022
воря	-4023
▁превра	-4024
▁подразде	-4025
май	-4026
▁отстав	-4027
, —	-4028
.)	-4029
▁список	-4030
▁дело	-4031
▁средства	-4032
реги	-4033
▁фронта	-4034
▁Коман	-4035
▁каз	-4036
груп	-4037
▁Вме	-4038
▁названия	-4039
▁категории	-4040
ссийской	-4041
емой	-4042
льский	-4043
порт	-4044
тием	-4045
▁строительство	-4046
"),	-4047
▁жела	-4048
▁автодоро	-4049
влека	-4050
▁став	-4051
▁одновременно	-4052
▁веке	-4053
Петербург	-4054
▁насчиты	-4055
▁увеличи	-4056
▁гг	-4057
нина	-4058
нос	-4059
▁выя	-4060
▁военного	-4061
▁рим	-4062
тился	-4063
▁Там	-4064
▁постав	-4065
нё	-4066
степ	-4067
▁цвета	-4068
ющую	-4069
▁Джор	-4070
Ку	-4071
▁наде	-4072
Бе	-4073
жем	-4074
▁положи	-4075
▁площад	-4076
Се	-4077
▁плат	-4078
▁стоя	-4079
дить	-4080
дёт	-4081
▁хорошо	-4082
▁долго	-4083
вольно	-4084
циони	-4085
▁соревнования	-4086
графии	-4087
▁плане	-4088
▁медаль	-4089
▁являлся	-4090
▁Таким	-4091
▁Пол	-4092
▁общей	-4093
▁состоялась	-4094
рту	-4095
щу	-4096
▁регуляр	-4097
син	-4098
▁соору	-4099
▁ —	-4100
▁моно	-4101
▁Алексе	-4102
▁эн	-4103
▁вое	-4104
▁доби	-4105
▁партий	-4106
тальный	-4107
▁победу	-4108
кипа	-4109
▁Эта	-4110
▁позднее	-4111
кома	-4112
▁священ	-4113
▁Афри	-4114
жает	-4115
▁жени	-4116
▁кавале	-4117
▁ау	-4118
тиви	-4119
▁военных	-4120
▁преду	-4121
бют	-4122
▁Фин	-4123
фии	-4124
▁раун	-4125
 %,	-4126
гло	-4127
▁Извест	-4128
▁множество	-4129
мые	-4130
▁площади	-4131
▁Сюжет	-4132
▁болез	-4133
▁революции	-4134
лями	-4135
▁высота	-4136
▁приве	-4137
▁синг	-4138
чиная	-4139
▁Каза	-4140
bo	-4141
▁тыс	-4142
Не	-4143
▁номина	-4144
дого	-4145
▁отпра	-4146
▁медали	-4147
▁осадков	-4148
▁могли	-4149
▁Всего	-4150
▁значения	-4151
▁актёр	-4152
▁строительства	-4153
▁выборах	-4154
▁Испании	-4155
▁высоко	-4156
▁Верх	-4157
▁региона	-4158
▁земле	-4159
▁вод	-4160
рованы	-4161
up	-4162
ровки	-4163
▁аппара	-4164
▁ху	-4165
▁уровне	-4166
▁торгов	-4167
льской	-4168
▁образу	-4169
▁Тру	-4170
летия	-4171
▁област	-4172
нисти	-4173
▁поро	-4174
▁продук	-4175
▁оч	-4176
ностей	-4177
▁боя	-4178
цкой	-4179
▁деву	-4180
▁соответственно	-4181
▁развитие	-4182
▁флота	-4183
▁Цер	-4184
перь	-4185
▁лёг	-4186
▁штата	-4187
▁недо	-4188
дию	-4189
▁известно	-4190
ос	-4191
▁кроме	-4192
▁оказыва	-4193
нера	-4194
▁дворя	-4195
▁тёп	-4196
▁большинство	-4197
когда	-4198
▁дис	-4199
▁научных	-4200
чить	-4201
▁уезд	-4202
▁американский	-4203
▁Расположен	-4204
▁пово	-4205
тского	-4206
▁Три	-4207
цам	-4208
арди	-4209
фу	-4210
▁всегда	-4211
мато	-4212
▁Зна	-4213
▁Её	-4214
ta	-4215
клон	-4216
▁одну	-4217
ристо	-4218
ква	-4219
▁сли	-4220
кторов	-4221
зывает	-4222
▁москов	-4223
▁прос	-4224
▁несмотря	-4225
ющихся	-4226
▁голов	-4227
▁дворов	-4228
бурга	-4229
▁Филип	-4230
▁писатель	-4231
▁губерна	-4232
▁финансо	-4233
юн	-4234
годня	-4235
▁гимна	-4236
▁приблизи	-4237
▁использовать	-4238
▁Нау	-4239
▁инициа	-4240
▁сильно	-4241
▁значение	-4242
▁инди	-4243
▁квали	-4244
").	-4245
▁Рим	-4246
▁тен	-4247
спомина	-4248
▁XVIII	-4249
гни	-4250
▁зоне	-4251
чек	-4252
▁месяцев	-4253
чила	-4254
▁неизвест	-4255
гает	-4256
▁считается	-4257
СС	-4258
стами	-4259
▁боевых	-4260
▁оборудо	-4261
тила	-4262
▁городской	-4263
▁пове	-4264
▁администра	-4265
дыду	-4266
▁оно	-4267
▁Обра	-4268
▁понима	-4269
▁Али	-4270
никам	-4271
▁различные	-4272
▁правления	-4273
зация	-4274
▁основной	-4275
▁непосред	-4276
▁Григо	-4277
▁числа	-4278
▁Код	-4279
▁хок	-4280
▁одер	-4281
▁сопрово	-4282
▁вось	-4283
▁Хот	-4284
▁назван	-4285
▁Виль	-4286
мс	-4287
▁команде	-4288
▁Дмитри	-4289
▁управля	-4290
▁целом	-4291
▁законо	-4292
либо	-4293
▁направлен	-4294
▁Ай	-4295
▁спортс	-4296
▁занимался	-4297
стики	-4298
▁смог	-4299
▁Рай	-4300
▁дипло	-4301
▁имели	-4302
вив	-4303
▁состоялся	-4304
▁Королев	-4305
▁которому	-4306
ила	-4307
▁обяза	-4308
▁°	-4309
▁оз	-4310
▁недоста	-4311
лень	-4312
▁события	-4313
▁взаимо	-4314
жало	-4315
▁мед	-4316
шему	-4317
боро	-4318
▁находятся	-4319
▁компью	-4320
▁Участ	-4321
▁Сам	-4322
▁демон	-4323
▁озера	-4324
нуть	-4325
▁пассажи	-4326
▁арен	-4327
сные	-4328
одо	-4329
оны	-4330
▁километ	-4331
мед	-4332
способ	-4333
рист	-4334
▁транс	-4335
тным	-4336
▁зри	-4337
▁главный	-4338
▁Европе	-4339
▁Иван	-4340
▁посёлка	-4341
▁Вскоре	-4342
▁условиях	-4343
▁группе	-4344
нском	-4345
▁проходит	-4346
вай	-4347
▁модели	-4348
▁мину	-4349
▁пору	-4350
▁четвер	-4351
▁Некоторые	-4352
▁образован	-4353
ятся	-4354
▁самой	-4355
▁дочери	-4356
дел	-4357
▁Спи	-4358
▁хими	-4359
Ар	-4360
▁механи	-4361
граф	-4362
▁китай	-4363
тку	-4364
▁представителей	-4365
▁Университе	-4366
▁вокруг	-4367
▁узна	-4368
логия	-4369
▁заму	-4370
▁сей	-4371
▁жерт	-4372
▁угро	-4373
▁оцени	-4374
До	-4375
▁научно	-4376
▁Син	-4377
▁одино	-4378
▁хозяйства	-4379
▁исследований	-4380
▁наслед	-4381
шими	-4382
▁заверши	-4383
абсолютный	-4384
льт	-4385
▁Гене	-4386
час	-4387
▁деревян	-4388
▁игре	-4389
▁формы	-4390
▁написан	-4391
▁най	-4392
▁IV	-4393
▁широко	-4394
▁Награ	-4395
▁эксплуа	-4396
▁Фё	-4397
▁чемпионат	-4398
▁округе	-4399
строен	-4400
▁дальнейшем	-4401
жской	-4402
▁конт	-4403
▁Николай	-4404
▁уровня	-4405
▁посо	-4406
▁солдат	-4407
▁Сто	-4408
ллю	-4409
▁потому	-4410
поле	-4411
▁Средняя	-4412
зор	-4413
ul	-4414
това	-4415
▁друга	-4416
▁Бен	-4417
▁предлага	-4418
▁серьёз	-4419
▁включает	-4420
ческими	-4421
чился	-4422
▁Поли	-4423
▁Михай	-4424
▁лучших	-4425
▁Окончил	-4426
▁Бела	-4427
▁окра	-4428
▁самостоя	-4429
Ли	-4430
▁подписал	-4431
▁первен	-4432
тыми	-4433
▁начальника	-4434
▁следующие	-4435
▁поселение	-4436
фро	-4437
▁мага	-4438
▁муниципали	-4439
▁Ак	-4440
ляции	-4441
igh	-4442
диума	-4443
▁Азии	-4444
▁изменения	-4445
▁Эд	-4446
▁предыду	-4447
▁указыва	-4448
руют	-4449
▁искусств	-4450
стера	-4451
▁внутри	-4452
▁группу	-4453
▁Юго	-4454
▁Пла	-4455
▁молоды	-4456
▁экспери	-4457
лот	-4458
▁Название	-4459
▁должно	-4460
гент	-4461
▁спра	-4462
▁кро	-4463
▁заведу	-4464
▁парти	-4465
▁музей	-4466
▁реке	-4467
ант	-4468
.).	-4469
▁большая	-4470
▁занимал	-4471
▁известен	-4472
ционные	-4473
▁маги	-4474
▁неда	-4475
лада	-4476
▁отношении	-4477
▁ниже	-4478
▁Ль	-4479
жского	-4480
▁орденом	-4481
▁последо	-4482
▁Длина	-4483
▁гвардей	-4484
▁Осно	-4485
ющиеся	-4486
▁Южной	-4487
▁воздуш	-4488
форм	-4489
▁ника	-4490
▁достаточно	-4491
▁Похо	-4492
нан	-4493
▁первое	-4494
▁приводи	-4495
▁инженер	-4496
▁информации	-4497
телям	-4498
▁реак	-4499
▁точки	-4500
ъя	-4501
▁ряда	-4502
▁Автор	-4503
тического	-4504
▁отдела	-4505
ходил	-4506
никах	-4507
ine	-4508
▁стади	-4509
▁офице	-4510
▁море	-4511
▁добро	-4512
▁такой	-4513
▁Полу	-4514
▁Тома	-4515
▁сведения	-4516
▁Серге	-4517
ленной	-4518
дения	-4519
▁итогам	-4520
▁тол	-4521
▁поля	-4522
тали	-4523
▁Анто	-4524
▁сообщи	-4525
нович	-4526
щено	-4527
востоку	-4528
▁девя	-4529
▁обязан	-4530
▁факультет	-4531
▁путеше	-4532
▁вру	-4533
▁консер	-4534
▁известный	-4535
▁Хотя	-4536
рица	-4537
имён	-4538
▁Вене	-4539
▁Мэ	-4540
тивной	-4541
▁странах	-4542
▁региональ	-4543
▁принимал	-4544
тую	-4545
споль	-4546
▁штаба	-4547
▁доме	-4548
▁супру	-4549
станции	-4550
▁шести	-4551
▁плен	-4552
▁продю	-4553
▁пут	-4554
западу	-4555
▁Помимо	-4556
▁совместно	-4557
рота	-4558
назна	-4559
▁значительно	-4560
▁бело	-4561
льную	-4562
▁атмосфер	-4563
▁биз	-4564
лай	-4565
рее	-4566
скохозяй	-4567
▁военной	-4568
▁судь	-4569
вшее	-4570
▁музыки	-4571
▁Народ	-4572
▁теории	-4573
ne	-4574
▁публика	-4575
▁побереж	-4576
шел	-4577
гри	-4578
▁правило	-4579
▁описы	-4580
▁Нов	-4581
▁участник	-4582
▁мм	-4583
▁выпуск	-4584
▁Национальный	-4585
▁звё	-4586
▁вида	-4587
ковые	-4588
▁опер	-4589
▁неодно	-4590
▁Том	-4591
▁требу	-4592
ведены	-4593
дио	-4594
▁предоста	-4595
▁действу	-4596
▁Хе	-4597
▁армия	-4598
▁своими	-4599
▁входила	-4600
▁Советского	-4601
▁наступ	-4602
▁промышленности	-4603
▁улице	-4604
щество	-4605
▁игру	-4606
▁сторону	-4607
▁Джи	-4608
мма	-4609
▁проживало	-4610
▁обвин	-4611
риториаль	-4612
▁увели	-4613
▁пункт	-4614
▁экипа	-4615
▁историю	-4616
▁зрения	-4617
▁реб	-4618
▁гол	-4619
▁производство	-4620
ними	-4621
▁феде	-4622
▁активно	-4623
▁прежде	-4624
▁Петер	-4625
▁знамени	-4626
▁степень	-4627
▁сначала	-4628
▁Киев	-4629
тические	-4630
▁официально	-4631
▁премьер	-4632
▁действий	-4633
нка	-4634
▁Кре	-4635
▁архе	-4636
▁посвящён	-4637
▁лиги	-4638
служенный	-4639
▁счёт	-4640
▁одноимён	-4641
▁системе	-4642
▁укреп	-4643
ссив	-4644
кратно	-4645
ist	-4646
тел	-4647
eg	-4648
▁сро	-4649
▁л	-4650
.),	-4651
вказ	-4652
единён	-4653
▁оде	-4654
▁приобре	-4655
куп	-4656
▁Сара	-4657
АТ	-4658
▁бомб	-4659
▁территория	-4660
▁заместитель	-4661
▁Тран	-4662
Ви	-4663
ant	-4664
▁зимой	-4665
▁среднем	-4666
▁Московского	-4667
▁транспорт	-4668
▁всю	-4669
▁баш	-4670
▁Город	-4671
ряду	-4672
чность	-4673
сериа	-4674
▁втор	-4675
▁водного	-4676
сур	-4677
техниче	-4678
▁семья	-4679
▁партия	-4680
▁суда	-4681
▁Петро	-4682
енью	-4683
емого	-4684
гран	-4685
▁втором	-4686
▁ежегод	-4687
лине	-4688
тской	-4689
▁крестьян	-4690
▁друго	-4691
▁сельсовет	-4692
▁отправ	-4693
▁большое	-4694
▁тюрь	-4695
▁Белару	-4696
▁Дон	-4697
▁войсками	-4698
щал	-4699
ждена	-4700
▁фами	-4701
▁ожи	-4702
▁половине	-4703
▁административно	-4704
ниях	-4705
ковский	-4706
▁Кры	-4707
▁записи	-4708
▁Побе	-4709
▁Дей	-4710
гон	-4711
▁Шве	-4712
▁Макси	-4713
▁призёр	-4714
кл	-4715
▁Крым	-4716
▁сотрудниче	-4717
▁Академии	-4718
мона	-4719
йский	-4720
▁власть	-4721
шир	-4722
▁границы	-4723
▁русский	-4724
чая	-4725
▁мать	-4726
роне	-4727
▁каждый	-4728
ep	-4729
▁науки	-4730
▁следующий	-4731
▁гидро	-4732
ak	-4733
▁приш	-4734
ew	-4735
▁Бал	-4736
▁хро	-4737
▁соответству	-4738
▁есте	-4739
▁книг	-4740
▁тяже	-4741
помина	-4742
терна	-4743
▁фир	-4744
▁приблизительно	-4745
▁станция	-4746
▁раск	-4747
▁метал	-4748
▁центральной	-4749
▁артиллерий	-4750
all	-4751
▁конферен	-4752
▁последний	-4753
ВС	-4754
▁поня	-4755
▁изо	-4756
▁Фло	-4757
▁трудо	-4758
ченко	-4759
цар	-4760
▁преимущественно	-4761
▁орке	-4762
▁транспо	-4763
▁будут	-4764
Ки	-4765
▁учился	-4766
▁Име	-4767
▁рома	-4768
▁Москва	-4769
▁ними	-4770
▁заста	-4771
▁меж	-4772
триар	-4773
▁случай	-4774
▁гар	-4775
жном	-4776
▁работает	-4777
▁литературы	-4778
▁экспо	-4779
▁камен	-4780
▁книге	-4781
▁стороне	-4782
und	-4783
▁опас	-4784
риста	-4785
▁Шта	-4786
▁времен	-4787
▁сельскохозяй	-4788
▁средней	-4789
▁установлен	-4790
ess	-4791
▁регионе	-4792
▁ОО	-4793
мый	-4794
art	-4795
▁вошёл	-4796
▁участок	-4797
▁стиле	-4798
▁заняла	-4799
жали	-4800
дит	-4801
▁эми	-4802
▁жил	-4803
кен	-4804
станавли	-4805
▁средне	-4806
▁шоу	-4807
▁огром	-4808
▁Сле	-4809
▁мере	-4810
▁счётом	-4811
товых	-4812
▁досто	-4813
▁выде	-4814
▁бригады	-4815
ведена	-4816
ГУ	-4817
▁Авст	-4818
воен	-4819
▁Красной	-4820
▁выступил	-4821
▁парт	-4822
товой	-4823
ровала	-4824
рский	-4825
▁позволяет	-4826
спек	-4827
▁Уча	-4828
▁Зи	-4829
Ин	-4830
▁первая	-4831
ip	-4832
щую	-4833
▁Гон	-4834
▁газеты	-4835
▁длиной	-4836
▁отделения	-4837
▁выхода	-4838
▁юриди	-4839
▁Ско	-4840
▁заболе	-4841
▁пределах	-4842
▁Украин	-4843
▁Семья	-4844
▁Ленина	-4845
▁Воло	-4846
▁международных	-4847
стье	-4848
▁рублей	-4849
чку	-4850
▁набра	-4851
территориаль	-4852
▁фла	-4853
жным	-4854
▁сде	-4855
▁трав	-4856
формы	-4857
тере	-4858
вера	-4859
лес	-4860
▁южной	-4861
▁отлича	-4862
▁основа	-4863
эта	-4864
▁предприятия	-4865
тическая	-4866
▁государственной	-4867
▁характеризуется	-4868
▁предназна	-4869
▁карьеры	-4870
▁шесть	-4871
КП	-4872
рич	-4873
кина	-4874
вому	-4875
▁удар	-4876
▁сочин	-4877
▁Занимает	-4878
▁средств	-4879
падения	-4880
▁происхождения	-4881
▁миллионов	-4882
графия	-4883
жить	-4884
▁базе	-4885
▁Бур	-4886
▁Харь	-4887
▁храма	-4888
▁Яро	-4889
▁музея	-4890
▁Це	-4891
▁мужчины	-4892
тельном	-4893
ВД	-4894
▁сосед	-4895
▁матчах	-4896
стры	-4897
▁движение	-4898
▁прямо	-4899
▁Президиума	-4900
ссов	-4901
▁потре	-4902
▁процесс	-4903
▁решения	-4904
▁железной	-4905
гото	-4906
▁председатель	-4907
ab	-4908
▁оса	-4909
▁император	-4910
горо	-4911
▁начальник	-4912
▁измени	-4913
▁особен	-4914
▁вице	-4915
защи	-4916
ct	-4917
▁минимум	-4918
▁действо	-4919
рас	-4920
▁кисло	-4921
дал	-4922
▁Тай	-4923
рации	-4924
" —	-4925
шек	-4926
валь	-4927
жению	-4928
▁департа	-4929
Ре	-4930
▁крестья	-4931
if	-4932
▁улуч	-4933
водство	-4934
▁оши	-4935
io	-4936
▁зад	-4937
сев	-4938
▁той	-4939
▁вступил	-4940
▁остров	-4941
фициаль	-4942
клады	-4943
▁растений	-4944
▁Йо	-4945
▁решил	-4946
бек	-4947
▁храм	-4948
▁педагоги	-4949
▁дивизия	-4950
▁охо	-4951
▁участия	-4952
нар	-4953
▁пенси	-4954
▁поддержку	-4955
▁b	-4956
▁песню	-4957
▁директор	-4958
▁помощь	-4959
▁ассоциа	-4960
▁Смо	-4961
бий	-4962
▁русской	-4963
▁систем	-4964
▁Геро	-4965
▁Брази	-4966
▁вся	-4967
▁Даль	-4968
еписко	-4969
▁зали	-4970
щик	-4971
насти	-4972
▁Пара	-4973
▁использования	-4974
▁Кам	-4975
▁Высо	-4976
плоть	-4977
▁наличи	-4978
▁Париже	-4979
унд	-4980
шком	-4981
жена	-4982
▁Хан	-4983
▁резер	-4984
мером	-4985
▁должна	-4986
▁местного	-4987
▁вошли	-4988
▁Мек	-4989
ври	-4990
▁Лей	-4991
лне	-4992
▁Иоан	-4993
▁крупных	-4994
▁глубо	-4995
▁Сергей	-4996
▁старший	-4997
ждений	-4998
язы	-4999
▁существует	-5000
вка	-5001
▁самом	-5002
▁Здесь	-5003
av	-5004
▁фер	-5005
▁план	-5006
▁самоу	-5007
нему	-5008
▁умень	-5009
▁Сим	-5010
▁Село	-5011
ev	-5012
▁Святого	-5013
рат	-5014
▁Один	-5015
стон	-5016
новить	-5017
▁основных	-5018
тность	-5019
▁концеп	-5020
цеп	-5021
ию	-5022
▁добы	-5023
▁командира	-5024
▁неуда	-5025
▁Лин	-5026
▁графа	-5027
рованных	-5028
ногие	-5029
▁опубликован	-5030
▁Нача	-5031
вью	-5032
лд	-5033
▁напря	-5034
▁выделя	-5035
▁Com	-5036
▁правом	-5037
▁журнали	-5038
ам	-5039
▁распростра	-5040
▁Ры	-5041
▁пропа	-5042
рыва	-5043
зиден	-5044
дес	-5045
еремо	-5046
▁митро	-5047
▁Бли	-5048
▁дене	-5049
▁континентальный	-5050
▁развед	-5051
▁графи	-5052
▁финале	-5053
вец	-5054
▁штур	-5055
▁эска	-5056
роприя	-5057
ровано	-5058
▁реестра	-5059
▁Михаил	-5060
▁бомбарди	-5061
▁путь	-5062
▁дебют	-5063
▁Россия	-5064
▁обви	-5065
our	-5066
АН	-5067
▁замет	-5068
▁размер	-5069
▁позна	-5070
▁интерес	-5071
▁последние	-5072
▁см	-5073
стройки	-5074
возмо	-5075
▁большую	-5076
▁компанией	-5077
▁временем	-5078
▁доказа	-5079
▁произошло	-5080
▁чемпионом	-5081
▁Впервые	-5082
▁Ат	-5083
▁Ивано	-5084
▁районного	-5085
▁and	-5086
▁раза	-5087
▁коммер	-5088
нении	-5089
тивно	-5090
▁никогда	-5091
▁товари	-5092
рика	-5093
борато	-5094
ue	-5095
▁ЦК	-5096
▁распреде	-5097
мани	-5098
мией	-5099
▁защиты	-5100
стен	-5101
бар	-5102
▁иностранных	-5103
▁оке	-5104
▁выбра	-5105
▁исследова	-5106
▁бого	-5107
▁общего	-5108
▁Наиболее	-5109
▁пользо	-5110
▁фабри	-5111
▁Вместе	-5112
▁проз	-5113
▁следующем	-5114
щиков	-5115
вшейся	-5116
▁княже	-5117
▁городов	-5118
▁звез	-5119
▁турнир	-5120
▁командованием	-5121
▁вооружён	-5122
▁Америки	-5123
гене	-5124
редо	-5125
▁лагер	-5126
вос	-5127
▁работала	-5128
▁председателя	-5129
ell	-5130
▁комиссии	-5131
▁расположены	-5132
▁лиге	-5133
▁выход	-5134
▁строитель	-5135
▁телевид	-5136
бель	-5137
▁прошёл	-5138
рил	-5139
летний	-5140
▁Al	-5141
▁Ван	-5142
рабаты	-5143
▁окончании	-5144
гий	-5145
▁Австралии	-5146
▁пункты	-5147
Анд	-5148
▁Бор	-5149
▁русских	-5150
▁астро	-5151
▁фра	-5152
▁председателем	-5153
▁модель	-5154
▁юно	-5155
чив	-5156
кле	-5157
альной	-5158
чке	-5159
▁снима	-5160
▁всем	-5161
▁Марии	-5162
▁Тор	-5163
▁Чар	-5164
бла	-5165
бло	-5166
▁смы	-5167
▁севере	-5168
американ	-5169
дови	-5170
лович	-5171
▁возглавил	-5172
▁художник	-5173
стояние	-5174
сшта	-5175
́р	-5176
▁сохра	-5177
▁звания	-5178
▁взгля	-5179
▁началось	-5180
▁Летом	-5181
▁судеб	-5182
▁довольно	-5183
уд	-5184
▁форме	-5185
▁суме	-5186
везда	-5187
▁перегово	-5188
мит	-5189
фы	-5190
▁животных	-5191
ол	-5192
▁показыва	-5193
▁началась	-5194
▁программ	-5195
▁Выс	-5196
▁Бого	-5197
▁Ран	-5198
▁чита	-5199
▁монастыря	-5200
ад	-5201
▁дважды	-5202
▁острове	-5203
рана	-5204
▁юге	-5205
▁сделать	-5206
▁Бан	-5207
▁проведения	-5208
▁обслужи	-5209
▁упразднён	-5210
фраструк	-5211
вского	-5212
▁сделал	-5213
▁местных	-5214
▁Позд	-5215
▁силу	-5216
▁Ян	-5217
▁сос	-5218
ровка	-5219
Йорк	-5220
вшими	-5221
▁мон	-5222
▁русского	-5223
▁Оль	-5224
Ле	-5225
▁XVII	-5226
▁Их	-5227
▁следует	-5228
зад	-5229
▁подчин	-5230
най	-5231
▁составляла	-5232
▁зависимости	-5233
▁Болга	-5234
▁сохран	-5235
бине	-5236
▁КПСС	-5237
▁Груп	-5238
▁путём	-5239
зывал	-5240
▁гото	-5241
тное	-5242
степенно	-5243
▁централь	-5244
ходе	-5245
▁фильмов	-5246
тивного	-5247
Де	-5248
▁депутатов	-5249
▁война	-5250
ok	-5251
▁рекон	-5252
▁легко	-5253
▁коле	-5254
▁сами	-5255
чика	-5256
▁диссертацию	-5257
▁упоминается	-5258
▁директора	-5259
▁говорит	-5260
▁Вин	-5261
▁высоте	-5262
Ни	-5263
▁получить	-5264
▁присвоено	-5265
▁директором	-5266
▁переехал	-5267
▁пож	-5268
▁минут	-5269
▁владель	-5270
▁национального	-5271
▁сказал	-5272
]]	-5273
▁мероприя	-5274
▁современной	-5275
▁семи	-5276
декс	-5277
произ	-5278
▁пят	-5279
▁копи	-5280
▁de	-5281
▁перевод	-5282
▁произведений	-5283
ровался	-5284
щадь	-5285
▁продви	-5286
▁частей	-5287
▁проб	-5288
▁Ах	-5289
▁рабочих	-5290
▁боях	-5291
▁борьбы	-5292
▁соверш	-5293
следования	-5294
▁покинул	-5295
▁борьбе	-5296
▁паро	-5297
вило	-5298
▁Нидер	-5299
▁теперь	-5300
▁времена	-5301
▁Северо	-5302
»".	-5303
▁Похоронен	-5304
▁участников	-5305
тиру	-5306
▁величи	-5307
▁выдви	-5308
▁догово	-5309
тический	-5310
▁республики	-5311
▁династи	-5312
ob	-5313
союз	-5314
▁именем	-5315
эк	-5316
▁изготов	-5317
▁демокра	-5318
▁направления	-5319
рение	-5320
▁возможности	-5321
чета	-5322
▁пото	-5323
все	-5324
▁своему	-5325
end	-5326
сили	-5327
▁ам	-5328
▁насле	-5329
телю	-5330
▁уез	-5331
▁экра	-5332
▁швед	-5333
ight	-5334
▁Клуб	-5335
рона	-5336
▁Гла	-5337
▁корпус	-5338
дный	-5339
дных	-5340
нская	-5341
▁Например	-5342
▁известных	-5343
▁аб	-5344
▁тепло	-5345
▁военный	-5346
▁назвал	-5347
▁верши	-5348
▁тёпло	-5349
▁клубом	-5350
▁история	-5351
▁направлении	-5352
▁законода	-5353
зой	-5354
▁муниципального	-5355
▁проблемы	-5356
▁Азербайджа	-5357
▁электри	-5358
правления	-5359
▁разработан	-5360
фек	-5361
▁Иль	-5362
▁комплекс	-5363
▁столк	-5364
▁коме	-5365
▁певи	-5366
лрд	-5367
тивные	-5368
стые	-5369
тью	-5370
новения	-5371
сии	-5372
▁Абсолю	-5373
тт	-5374
▁сове	-5375
долго	-5376
▁Бел	-5377
▁утра	-5378
▁турец	-5379
▁князя	-5380
городской	-5381
):	-5382
▁хол	-5383
▁Первая	-5384
чать	-5385
▁опубликова	-5386
нных	-5387
▁пришлось	-5388
ственном	-5389
▁министра	-5390
нили	-5391
▁лиде	-5392
▁превы	-5393
▁свер	-5394
▁сю	-5395
▁северной	-5396
▁представлен	-5397
▁вплоть	-5398
Дина	-5399
▁появился	-5400
▁Швей	-5401
▁представители	-5402
кового	-5403
▁пользу	-5404
▁Воен	-5405
▁Указом	-5406
▁родилась	-5407
▁найден	-5408
▁сопер	-5409
▁Стра	-5410
▁Ещё	-5411
▁Находится	-5412
▁скры	-5413
рье	-5414
▁ликви	-5415
вшегося	-5416
▁подня	-5417
бет	-5418
▁управление	-5419
ющийся	-5420
▁армию	-5421
▁мел	-5422
▁Мат	-5423
▁страте	-5424
▁Бель	-5425
рг	-5426
▁бывшего	-5427
▁генерала	-5428
▁режиссёра	-5429
ian	-5430
▁выборов	-5431
▁Первые	-5432
АО	-5433
▁истре	-5434
▁Эль	-5435
▁провод	-5436
мами	-5437
▁сюжет	-5438
емая	-5439
▁групп	-5440
▁сети	-5441
▁штаб	-5442
зование	-5443
▁Впоследствии	-5444
▁императора	-5445
▁малень	-5446
▁свидетель	-5447
▁создание	-5448
▁вдоль	-5449
шет	-5450
▁Евг	-5451
Ва	-5452
▁обнаружи	-5453
▁политической	-5454
▁замени	-5455
▁картины	-5456
Ан	-5457
▁отправился	-5458
МИ	-5459
▁некоторое	-5460
шена	-5461
▁холодного	-5462
▁Спе	-5463
▁особо	-5464
▁институте	-5465
▁Перед	-5466
́й	-5467
чий	-5468
▁Хор	-5469
ять	-5470
▁Николая	-5471
нио	-5472
▁Всеро	-5473
▁напада	-5474
ge	-5475
▁версия	-5476
слуги	-5477
▁Кита	-5478
ричне	-5479
▁полуфина	-5480
▁in	-5481
мён	-5482
▁Луи	-5483
▁жители	-5484
▁оказался	-5485
новил	-5486
▁Мария	-5487
▁ракет	-5488
▁Европей	-5489
▁рекорд	-5490
▁Вой	-5491
▁художника	-5492
▁жена	-5493
▁электрон	-5494
▁Джу	-5495
жено	-5496
Про	-5497
▁пан	-5498
▁любов	-5499
▁окружа	-5500
▁создании	-5501
▁трени	-5502
▁слов	-5503
▁церемо	-5504
▁Министерства	-5505
кому	-5506
▁Джона	-5507
▁ремон	-5508
пля	-5509
простран	-5510
▁выступления	-5511
▁привело	-5512
▁Дне	-5513
▁брать	-5514
нологии	-5515
чём	-5516
▁выска	-5517
▁событий	-5518
Да	-5519
▁входят	-5520
таре	-5521
щихся	-5522
▁исключи	-5523
ственную	-5524
рхи	-5525
▁Кэ	-5526
▁сда	-5527
НК	-5528
▁находились	-5529
▁возраста	-5530
Та	-5531
купи	-5532
стых	-5533
▁брата	-5534
St	-5535
▁почёт	-5536
ой	-5537
стойчи	-5538
▁занимает	-5539
▁Уз	-5540
▁спосо	-5541
▁сопровожда	-5542
▁появля	-5543
тков	-5544
▁приняли	-5545
▁появилась	-5546
▁вопрос	-5547
▁пала	-5548
зами	-5549
▁Лат	-5550
вав	-5551
▁Архи	-5552
▁престо	-5553
годы	-5554
например	-5555
▁рубе	-5556
зию	-5557
▁Социалисти	-5558
▁ресур	-5559
▁началом	-5560
▁принято	-5561
▁Sp	-5562
▁ке	-5563
влено	-5564
▁Абсолютная	-5565
▁вероятно	-5566
▁Чемпиона	-5567
▁зер	-5568
▁назад	-5569
тский	-5570
▁нему	-5571
▁мусуль	-5572
▁Василь	-5573
▁аналоги	-5574
зре	-5575
▁основании	-5576
▁командир	-5577
▁Иванов	-5578
▁премию	-5579
▁Произ	-5580
▁звёзд	-5581
зал	-5582
▁An	-5583
▁лейтен	-5584
▁нако	-5585
▁народа	-5586
▁)	-5587
▁[[	-5588
▁момента	-5589
мьера	-5590
▁постоянно	-5591
▁домов	-5592
мены	-5593
▁появились	-5594
довой	-5595
▁скло	-5596
▁эко	-5597
фикация	-5598
▁женился	-5599
́ль	-5600
▁ль	-5601
ступила	-5602
▁сельское	-5603
▁очков	-5604
▁леген	-5605
ента	-5606
▁Слу	-5607
ченных	-5608
▁Теле	-5609
▁смени	-5610
полож	-5611
▁Сиби	-5612
▁систему	-5613
ik	-5614
ходов	-5615
▁бар	-5616
▁Же	-5617
▁Гран	-5618
▁создал	-5619
▁тренером	-5620
вока	-5621
▁интервью	-5622
▁En	-5623
филь	-5624
▁Что	-5625
▁проходил	-5626
ly	-5627
▁выпадает	-5628
▁статисти	-5629
стал	-5630
▁чере	-5631
▁Мари	-5632
▁Площадь	-5633
ind	-5634
▁куп	-5635
▁перен	-5636
штей	-5637
янва	-5638
▁профессора	-5639
▁меч	-5640
▁Эй	-5641
▁издания	-5642
стар	-5643
чиков	-5644
▁концу	-5645
▁Тогда	-5646
▁главных	-5647
▁деле	-5648
▁рейтин	-5649
нки	-5650
▁реа	-5651
▁автобу	-5652
▁имела	-5653
▁бывший	-5654
▁летних	-5655
тельными	-5656
тик	-5657
▁норма	-5658
▁Егип	-5659
▁автоном	-5660
кора	-5661
▁успешно	-5662
▁распоря	-5663
шены	-5664
▁Экономи	-5665
▁политики	-5666
▁каждой	-5667
▁главной	-5668
▁Многие	-5669
▁данные	-5670
▁уса	-5671
▁семь	-5672
▁группой	-5673
▁Памя	-5674
печат	-5675
▁кварти	-5676
▁Шар	-5677
▁югу	-5678
▁народов	-5679
▁победы	-5680
▁Калифор	-5681
▁Нидерлан	-5682
▁круг	-5683
вия	-5684
чество	-5685
▁обсу	-5686
▁грани	-5687
▁основания	-5688
▁бер	-5689
▁Индии	-5690
▁Является	-5691
ционно	-5692
▁король	-5693
▁расположено	-5694
▁Ара	-5695
▁косми	-5696
▁новую	-5697
▁лиц	-5698
слова	-5699
евский	-5700
ens	-5701
▁вошла	-5702
▁согласи	-5703
сова	-5704
лиа	-5705
▁современного	-5706
▁заместителем	-5707
▁открыт	-5708
Об	-5709
▁западной	-5710
▁испа	-5711
▁взаимодей	-5712
▁цве	-5713
чений	-5714
ort	-5715
▁лаборато	-5716
▁играть	-5717
▁Поэ	-5718
▁театре	-5719
▁находилась	-5720
▁обучения	-5721
▁Армии	-5722
▁рождения	-5723
▁инду	-5724
▁книгу	-5725
▁Суще	-5726
коман	-5727
▁Выступа	-5728
шать	-5729
▁клубе	-5730
мотре	-5731
▁памятник	-5732
▁Лан	-5733
▁объявил	-5734
ЭС	-5735
▁рису	-5736
▁природ	-5737
▁советской	-5738
▁экономики	-5739
пуск	-5740
▁парламент	-5741
▁отделение	-5742
▁населённых	-5743
▁XVI	-5744
▁марки	-5745
▁архиеписко	-5746
▁сне	-5747
▁исче	-5748
▁войну	-5749
ry	-5750
▁соревнованиях	-5751
▁Ам	-5752
мую	-5753
▁функции	-5754
шению	-5755
▁ву	-5756
▁имеется	-5757
▁Сен	-5758
порта	-5759
▁дал	-5760
▁общество	-5761
шением	-5762
▁индивиду	-5763
мского	-5764
стрий	-5765
▁третий	-5766
▁называют	-5767
▁Владимира	-5768
▁тёплого	-5769
Ло	-5770
▁Благодаря	-5771
йдя	-5772
крови	-5773
▁поверхности	-5774
▁игроком	-5775
зья	-5776
Динамо	-5777
▁сегодня	-5778
▁Арм	-5779
▁митрополи	-5780
влением	-5781
▁использование	-5782
▁французский	-5783
▁входил	-5784
▁состоял	-5785
▁предме	-5786
▁общины	-5787
зывы	-5788
ровского	-5789
▁местности	-5790
▁книга	-5791
▁Карл	-5792
▁Лондоне	-5793
▁избра	-5794
▁код	-5795
чит	-5796
▁сопротив	-5797
▁заби	-5798
лец	-5799
жную	-5800
▁студии	-5801
щими	-5802
▁максима	-5803
▁трак	-5804
▁приказа	-5805
▁другом	-5806
единя	-5807
▁диза	-5808
»;	-5809
совой	-5810
▁встречается	-5811
казу	-5812
▁сигна	-5813
▁след	-5814
▁зим	-5815
▁создана	-5816
▁Бай	-5817
▁ожида	-5818
фов	-5819
▁лица	-5820
▁сравни	-5821
▁Rec	-5822
манской	-5823
▁протекает	-5824
▁художников	-5825
▁заседа	-5826
лера	-5827
▁советских	-5828
▁Рича	-5829
держит	-5830
рской	-5831
▁территорию	-5832
▁здоров	-5833
форд	-5834
дру	-5835
▁цели	-5836
вол	-5837
дили	-5838
▁Лит	-5839
▁президентом	-5840
▁буд	-5841
▁меньше	-5842
севдо	-5843
сят	-5844
▁Финлян	-5845
▁предложил	-5846
вской	-5847
бен	-5848
▁нар	-5849
Му	-5850
▁Сла	-5851
▁арестован	-5852
▁языков	-5853
▁старо	-5854
стане	-5855
▁режиссёр	-5856
шко	-5857
▁потер	-5858
▁окрест	-5859
▁равно	-5860
ктябрь	-5861
▁вдо	-5862
▁спекта	-5863
▁Среднегодовая	-5864
▁организован	-5865
ваку	-5866
▁коль	-5867
▁члены	-5868
▁построена	-5869
 (	-5870
шал	-5871
вит	-5872
▁уровень	-5873
▁Мекси	-5874
▁техники	-5875
лизи	-5876
вина	-5877
▁a	-5878
▁Позднее	-5879
▁Петра	-5880
января	-5881
мести	-5882
▁секу	-5883
▁Прави	-5884
ьев	-5885
деть	-5886
▁факультета	-5887
▁попал	-5888
▁этапе	-5889
▁употреб	-5890
▁неоднократно	-5891
денти	-5892
▁испан	-5893
чью	-5894
ператор	-5895
▁ими	-5896
хождение	-5897
▁члена	-5898
▁телекана	-5899
регистри	-5900
ствием	-5901
▁вклад	-5902
▁компо	-5903
ленный	-5904
▁памяти	-5905
▁студий	-5906
▁Первоначально	-5907
▁зу	-5908
▁внутренних	-5909
чили	-5910
▁каждого	-5911
НР	-5912
▁Фу	-5913
▁крае	-5914
ллер	-5915
шении	-5916
▁лично	-5917
июля	-5918
▁тоже	-5919
▁жили	-5920
▁Большо	-5921
▁возвы	-5922
альных	-5923
▁труда	-5924
облада	-5925
▁преж	-5926
▁коммуна	-5927
▁англи	-5928
▁тём	-5929
▁Основные	-5930
▁слишком	-5931
гал	-5932
▁Брю	-5933
▁беспо	-5934
Фран	-5935
▁новое	-5936
зоб	-5937
▁найти	-5938
страи	-5939
▁Уэ	-5940
мене	-5941
▁гале	-5942
▁заниматься	-5943
менте	-5944
▁дисци	-5945
льными	-5946
▁оружия	-5947
ордина	-5948
▁диск	-5949
▁Швейца	-5950
▁виды	-5951
лег	-5952
рал	-5953
▁моги	-5954
ьет	-5955
нный	-5956
ографии	-5957
▁отвер	-5958
днев	-5959
▁подви	-5960
Ри	-5961
▁Пен	-5962
▁отряд	-5963
Бу	-5964
Ла	-5965
▁составил	-5966
▁осве	-5967
ковым	-5968
ходы	-5969
граде	-5970
То	-5971
▁теоре	-5972
▁n	-5973
мере	-5974
вери	-5975
сю	-5976
▁Стар	-5977
▁Централь	-5978
▁католи	-5979
▁Эсто	-5980
▁немецкий	-5981
▁Объ	-5982
▁Польши	-5983
▁игроков	-5984
▁пило	-5985
визион	-5986
▁новым	-5987
Га	-5988
▁епископ	-5989
▁замуж	-5990
▁архитектуры	-5991
▁агент	-5992
▁скончался	-5993
▁начинает	-5994
▁заводе	-5995
▁слово	-5996
свя	-5997
▁постепенно	-5998
▁Фильм	-5999
▁Участник	-6000
»:	-6001
лово	-6002
▁работали	-6003
▁избе	-6004
ive	-6005
дные	-6006
▁удостоен	-6007
▁большим	-6008
▁Гали	-6009
▁жены	-6010
дание	-6011
▁бази	-6012
▁отрица	-6013
▁кле	-6014
▁объё	-6015
▁Венг	-6016
▁шири	-6017
ровании	-6018
▁Ци	-6019
▁завоевал	-6020
▁Герой	-6021
Ха	-6022
▁отставку	-6023
▁взрос	-6024
▁Москву	-6025
▁Мер	-6026
возгла	-6027
▁АССР	-6028
стю	-6029
нист	-6030
турой	-6031
▁шоссе	-6032
▁второе	-6033
▁Казахстана	-6034
уна	-6035
▁преподава	-6036
сё	-6037
▁полуо	-6038
▁маль	-6039
▁предпринима	-6040
чис	-6041
▁используются	-6042
▁воин	-6043
▁ссы	-6044
тивный	-6045
▁Государственной	-6046
▁хокке	-6047
▁исполня	-6048
▁переименован	-6049
▁состоянии	-6050
▁преобразо	-6051
▁Record	-6052
▁лучшим	-6053
вена	-6054
ленные	-6055
▁спро	-6056
▁стары	-6057
▁округу	-6058
диа	-6059
▁магистра	-6060
▁отре	-6061
▁сравнению	-6062
▁результат	-6063
посто	-6064
▁стреми	-6065
вела	-6066
▁Британ	-6067
▁наступа	-6068
▁проблем	-6069
▁разби	-6070
тье	-6071
респо	-6072
▁Порту	-6073
ствовать	-6074
нули	-6075
▁РК	-6076
▁начальником	-6077
▁Твер	-6078
▁экспер	-6079
▁ничего	-6080
▁Смолен	-6081
▁сингл	-6082
▁рекомен	-6083
▁Откры	-6084
▁означает	-6085
ченные	-6086
▁магази	-6087
▁двой	-6088
▁стои	-6089
▁поезд	-6090
▁дорога	-6091
ran	-6092
▁истреби	-6093
▁Героя	-6094
▁остался	-6095
восточной	-6096
▁содержит	-6097
ционная	-6098
▁изнача	-6099
▁ее	-6100
▁комна	-6101
вский	-6102
пел	-6103
▁организация	-6104
▁театр	-6105
▁араб	-6106
▁кандидат	-6107
▁левом	-6108
▁Крас	-6109
кии	-6110
▁небольшой	-6111
▁командой	-6112
▁международного	-6113
▁повре	-6114
▁Пес	-6115
▁северу	-6116
▁Западной	-6117
▁национа	-6118
▁Прои	-6119
."	-6120
шинство	-6121
▁философ	-6122
офф	-6123
▁напра	-6124
▁предус	-6125
▁пунктов	-6126
кей	-6127
ровой	-6128
▁распространён	-6129
▁секретарь	-6130
▁Распростран	-6131
скет	-6132
▁бою	-6133
▁игрок	-6134
▁Шот	-6135
▁оба	-6136
▁Кол	-6137
кол	-6138
шить	-6139
▁напомина	-6140
тыс	-6141
▁начинается	-6142
▁причём	-6143
тру	-6144
▁свое	-6145
▁максимум	-6146
▁контроль	-6147
▁восточной	-6148
▁полномо	-6149
idae	-6150
шке	-6151
▁фронт	-6152
верен	-6153
гин	-6154
▁ночь	-6155
▁Варша	-6156
ленд	-6157
▁табли	-6158
ice	-6159
юри	-6160
▁восем	-6161
шается	-6162
▁отказался	-6163
▁камер	-6164
▁отдельных	-6165
▁грузо	-6166
▁квадра	-6167
▁отмеча	-6168
▁оккупа	-6169
▁олимпий	-6170
града	-6171
ходили	-6172
дона	-6173
▁Отец	-6174
▁последова	-6175
ровской	-6176
рэ	-6177
▁паралле	-6178
▁получив	-6179
▁философии	-6180
▁претен	-6181
▁устанавли	-6182
▁Авто	-6183
▁офицер	-6184
ментом	-6185
▁кафедры	-6186
кос	-6187
▁ориен	-6188
тает	-6189
▁чрез	-6190
▁стен	-6191
щать	-6192
чо	-6193
ёров	-6194
пто	-6195
▁куда	-6196
▁австрий	-6197
▁Кен	-6198
▁вслед	-6199
▁родствен	-6200
▁Владими	-6201
▁полиции	-6202
тете	-6203
▁эфи	-6204
▁будучи	-6205
▁возоб	-6206
▁метра	-6207
▁уголов	-6208
▁епархии	-6209
▁подготовки	-6210
▁Дю	-6211
▁голосо	-6212
▁численность	-6213
▁Работал	-6214
сив	-6215
▁подвод	-6216
▁Оста	-6217
уз	-6218
▁лёт	-6219
ксо	-6220
▁достижения	-6221
▁Ar	-6222
▁Румы	-6223
тивная	-6224
рост	-6225
▁командиром	-6226
ремен	-6227
▁продолжил	-6228
нической	-6229
ex	-6230
▁метро	-6231
▁прошло	-6232
▁защитил	-6233
▁прошли	-6234
▁процесса	-6235
▁Андрей	-6236
▁выста	-6237
▁весьма	-6238
▁обли	-6239
ph	-6240
▁частично	-6241
▁рекла	-6242
пти	-6243
хам	-6244
следователь	-6245
▁сви	-6246
▁Поэтому	-6247
▁относятся	-6248
▁редко	-6249
▁Пала	-6250
▁называется	-6251
▁зарегистри	-6252
▁тело	-6253
▁Фридри	-6254
▁евреев	-6255
▁Моло	-6256
тивными	-6257
▁говоря	-6258
слава	-6259
обо	-6260
жом	-6261
▁вторым	-6262
▁вопросам	-6263
дента	-6264
▁голосов	-6265
▁готов	-6266
▁прось	-6267
рисо	-6268
▁современных	-6269
Петербурге	-6270
▁посла	-6271
▁Современ	-6272
▁Института	-6273
тинг	-6274
▁раунде	-6275
▁российских	-6276
новского	-6277
▁лес	-6278
▁объектов	-6279
▁обрабо	-6280
ствовали	-6281
▁броне	-6282
▁полё	-6283
льф	-6284
нических	-6285
▁битве	-6286
▁короле	-6287
▁получения	-6288
▁v	-6289
лимпиа	-6290
▁Тю	-6291
▁корабля	-6292
▁психи	-6293
▁неак	-6294
▁вести	-6295
▁романа	-6296
▁отношений	-6297
▁предше	-6298
▁сериала	-6299
▁руководство	-6300
▁желе	-6301
Андже	-6302
▁домо	-6303
фере	-6304
▁скорость	-6305
повед	-6306
▁вызыва	-6307
▁эпохи	-6308
▁собо	-6309
▁гри	-6310
востоке	-6311
кали	-6312
▁смешан	-6313
▁поедин	-6314
▁кораблей	-6315
▁това	-6316
▁лод	-6317
▁районов	-6318
▁совершил	-6319
▁гро	-6320
▁проигра	-6321
▁результаты	-6322
тс	-6323
▁автором	-6324
▁местах	-6325
уреат	-6326
▁семина	-6327
▁эваку	-6328
▁невозмо	-6329
"».	-6330
▁атмосферных	-6331
▁ВВС	-6332
▁определи	-6333
чени	-6334
▁батальона	-6335
▁компьютер	-6336
▁такого	-6337
▁тренера	-6338
▁линей	-6339
ффе	-6340
▁Жу	-6341
▁Бере	-6342
▁асси	-6343
▁лоша	-6344
▁млн	-6345
▁начиная	-6346
новой	-6347
▁Иго	-6348
▁фактически	-6349
▁дети	-6350
чества	-6351
роко	-6352
▁Хай	-6353
ld	-6354
▁познакоми	-6355
▁возглавлял	-6356
▁произведён	-6357
рун	-6358
▁сет	-6359
▁иска	-6360
дцати	-6361
жки	-6362
▁этапа	-6363
ковской	-6364
▁восьми	-6365
пред	-6366
▁финала	-6367
▁каса	-6368
▁чинов	-6369
▁создать	-6370
евна	-6371
▁сыном	-6372
ватории	-6373
▁;	-6374
Су	-6375
one	-6376
▁красно	-6377
▁колон	-6378
▁послу	-6379
▁старше	-6380
Сан	-6381
▁тонн	-6382
пии	-6383
▁капи	-6384
▁документа	-6385
"»	-6386
▁экзем	-6387
мий	-6388
хотвор	-6389
▁запи	-6390
▁внес	-6391
шинг	-6392
▁Новой	-6393
лумби	-6394
хай	-6395
▁комбина	-6396
▁привле	-6397
тике	-6398
▁устройства	-6399
▁достиг	-6400
ждению	-6401
▁восстания	-6402
▁кара	-6403
бка	-6404
▁городах	-6405
▁Кей	-6406
▁обучение	-6407
▁Жан	-6408
▁Эк	-6409
▁держа	-6410
▁масшта	-6411
▁Иванович	-6412
▁Ярослав	-6413
▁бал	-6414
▁организаций	-6415
▁стрелковой	-6416
бели	-6417
▁Бразилии	-6418
меня	-6419
▁рок	-6420
▁лен	-6421
▁Тар	-6422
▁диамет	-6423
▁государственном	-6424
сель	-6425
▁Феде	-6426
▁май	-6427
▁раско	-6428
▁нам	-6429
кри	-6430
лыми	-6431
ромы	-6432
▁передачи	-6433
▁Сей	-6434
▁види	-6435
▁связь	-6436
▁состояние	-6437
▁доктора	-6438
▁Награды	-6439
тную	-6440
груз	-6441
▁присоединился	-6442
зю	-6443
вшаяся	-6444
тать	-6445
▁вече	-6446
фрикан	-6447
шер	-6448
▁союза	-6449
▁Швеции	-6450
▁последнего	-6451
▁поражение	-6452
ходом	-6453
ходить	-6454
▁кампании	-6455
▁потен	-6456
комо	-6457
редото	-6458
▁необходимо	-6459
▁рек	-6460
ральным	-6461
▁Алексей	-6462
▁вин	-6463
▁изоб	-6464
▁повто	-6465
▁линия	-6466
уэ	-6467
▁оппози	-6468
▁Кубке	-6469
выше	-6470
▁попада	-6471
▁принят	-6472
кона	-6473
▁Кин	-6474
Мар	-6475
▁горы	-6476
▁включён	-6477
▁уво	-6478
▁Гражда	-6479
▁запу	-6480
▁особы	-6481
▁Ниже	-6482
довое	-6483
При	-6484
лени	-6485
мену	-6486
▁министер	-6487
ального	-6488
ждая	-6489
▁перенес	-6490
▁реконструк	-6491
▁самый	-6492
▁ребён	-6493
▁VI	-6494
▁крей	-6495
▁иденти	-6496
▁Азербайджана	-6497
▁немного	-6498
▁тка	-6499
▁статьи	-6500
против	-6501
▁пишет	-6502
▁ды	-6503
▁Россий	-6504
▁лесов	-6505
▁случаях	-6506
▁представитель	-6507
▁народного	-6508
тически	-6509
Те	-6510
▁ген	-6511
фт	-6512
▁руки	-6513
▁конститу	-6514
▁АН	-6515
▁топли	-6516
▁Коло	-6517
лланд	-6518
▁иметь	-6519
ральных	-6520
леку	-6521
▁составила	-6522
▁псевдо	-6523
▁ум	-6524
▁средняя	-6525
▁Большой	-6526
▁Pro	-6527
▁терро	-6528
сид	-6529
▁Пан	-6530
▁успех	-6531
▁исторических	-6532
▁продолжал	-6533
▁журнал	-6534
уго	-6535
▁наимено	-6536
▁ус	-6537
▁издание	-6538
▁опу	-6539
▁объекта	-6540
дие	-6541
▁кине	-6542
▁исключением	-6543
▁представлены	-6544
▁отряда	-6545
чие	-6546
▁связано	-6547
жности	-6548
▁Дар	-6549
▁приводит	-6550
сторон	-6551
▁полага	-6552
сел	-6553
щика	-6554
▁непосредственно	-6555
▁срок	-6556
матических	-6557
▁Скончался	-6558
▁возника	-6559
▁бассейна	-6560
фей	-6561
▁Карла	-6562
▁солне	-6563
▁Ники	-6564
▁упа	-6565
▁Тра	-6566
▁Sh	-6567
▁Игра	-6568
ss	-6569
ловской	-6570
▁Фон	-6571
▁Вале	-6572
▁Транспорт	-6573
рэн	-6574
▁био	-6575
▁Михаила	-6576
▁фоне	-6577
▁Анато	-6578
▁Португа	-6579
▁иллю	-6580
▁политических	-6581
▁служи	-6582
ори	-6583
▁выиграла	-6584
емым	-6585
▁баскет	-6586
зок	-6587
яр	-6588
▁зло	-6589
▁патриар	-6590
ровая	-6591
▁Records	-6592
▁дороге	-6593
тины	-6594
▁встречаются	-6595
▁Созда	-6596
Че	-6597
▁Американ	-6598
▁ван	-6599
▁изде	-6600
листи	-6601
сколько	-6602
▁наказа	-6603
новский	-6604
▁СМИ	-6605
тника	-6606
▁кора	-6607
▁неде	-6608
▁озеро	-6609
▁Музы	-6610
▁искусство	-6611
рода	-6612
канчи	-6613
▁монастырь	-6614
▁основана	-6615
usic	-6616
ast	-6617
 % —	-6618
▁Поскольку	-6619
▁модер	-6620
▁деньги	-6621
▁провозгла	-6622
▁Ивана	-6623
▁игрока	-6624
▁предвари	-6625
чих	-6626
▁большей	-6627
▁Личная	-6628
▁американской	-6629
Ди	-6630
лакти	-6631
▁проведён	-6632
▁герои	-6633
▁реку	-6634
пин	-6635
мской	-6636
▁участием	-6637
▁Труда	-6638
oy	-6639
▁номер	-6640
▁высокой	-6641
▁лесо	-6642
▁Вороне	-6643
▁белорус	-6644
сить	-6645
▁сборная	-6646
▁похоронен	-6647
▁сеть	-6648
гона	-6649
вычай	-6650
▁Грузии	-6651
рда	-6652
рена	-6653
▁журнале	-6654
▁органов	-6655
▁Украине	-6656
▁крепости	-6657
зий	-6658
▁сотрудни	-6659
▁проживали	-6660
▁машин	-6661
▁обеспечения	-6662
▁объединения	-6663
вард	-6664
хангель	-6665
скрес	-6666
▁серия	-6667
▁Вес	-6668
тари	-6669
▁Ган	-6670
Пу	-6671
▁Un	-6672
ong	-6673
стави	-6674
▁считает	-6675
▁Конститу	-6676
рубе	-6677
▁километрах	-6678
▁администрации	-6679
▁трех	-6680
▁материалов	-6681
▁Китая	-6682
ловского	-6683
Золо	-6684
▁опубликовал	-6685
▁Кубок	-6686
ственности	-6687
льник	-6688
▁государств	-6689
▁Кы	-6690
▁обязанности	-6691
▁процессе	-6692
лога	-6693
▁Америке	-6694
▁Расстояние	-6695
▁традиции	-6696
▁Группа	-6697
▁количества	-6698
▁островов	-6699
▁актриса	-6700
крепи	-6701
▁старто	-6702
▁расстре	-6703
▁ядер	-6704
▁востоке	-6705
▁основал	-6706
цвет	-6707
ловой	-6708
▁чаще	-6709
▁критиков	-6710
▁середины	-6711
люб	-6712
▁Вален	-6713
▁воздей	-6714
▁карьере	-6715
▁силами	-6716
▁признан	-6717
▁спект	-6718
▁Свер	-6719
▁имуще	-6720
▁порта	-6721
▁единственный	-6722
▁соци	-6723
лился	-6724
▁созыва	-6725
▁редак	-6726
▁розы	-6727
▁царя	-6728
▁архитектур	-6729
▁фестива	-6730
▁Экономика	-6731
▁мото	-6732
ченный	-6733
▁аген	-6734
▁убийства	-6735
▁Ала	-6736
▁всему	-6737
▁раство	-6738
▁Национальной	-6739
▁дочер	-6740
▁кризи	-6741
тни	-6742
▁Мы	-6743
цева	-6744
▁делега	-6745
рованный	-6746
▁Сын	-6747
▁комплекса	-6748
следование	-6749
органи	-6750
стской	-6751
▁Уже	-6752
▁армя	-6753
ДР	-6754
▁еврей	-6755
мам	-6756
▁переход	-6757
▁литературе	-6758
ack	-6759
▁щи	-6760
▁западе	-6761
▁серий	-6762
▁Бре	-6763
▁Данные	-6764
▁порядка	-6765
▁Азербайджан	-6766
бах	-6767
рпи	-6768
▁карте	-6769
▁сцене	-6770
ческому	-6771
▁сосредото	-6772
▁Париж	-6773
беки	-6774
▁золотой	-6775
▁Стив	-6776
сным	-6777
▁прош	-6778
az	-6779
▁Первым	-6780
▁востоку	-6781
▁граница	-6782
▁Список	-6783
▁вырази	-6784
▁объедини	-6785
гно	-6786
пят	-6787
щением	-6788
▁Проис	-6789
▁установлены	-6790
▁научной	-6791
нке	-6792
Ша	-6793
▁ключе	-6794
Ти	-6795
▁порту	-6796
▁государственных	-6797
нический	-6798
▁контроли	-6799
▁воспомина	-6800
▁бур	-6801
сит	-6802
▁Лос	-6803
▁собрания	-6804
лив	-6805
▁входили	-6806
душ	-6807
▁уника	-6808
руссии	-6809
▁разные	-6810
бии	-6811
▁Кер	-6812
▁победил	-6813
ust	-6814
▁ВМ	-6815
▁экспедиции	-6816
▁Состав	-6817
нического	-6818
Кра	-6819
нулся	-6820
▁реша	-6821
▁политический	-6822
▁канад	-6823
▁посред	-6824
жное	-6825
▁высшей	-6826
▁мело	-6827
▁Органи	-6828
▁основы	-6829
▁Белорус	-6830
кас	-6831
▁пользова	-6832
вшем	-6833
▁западу	-6834
берта	-6835
дора	-6836
ang	-6837
▁решением	-6838
рованной	-6839
▁потреб	-6840
▁Эду	-6841
▁жёл	-6842
кал	-6843
▁птиц	-6844
▁финанси	-6845
▁успеха	-6846
▁договор	-6847
▁издатель	-6848
▁Император	-6849
уса	-6850
▁доли	-6851
▁гражданской	-6852
▁специальности	-6853
фан	-6854
▁спас	-6855
▁память	-6856
хой	-6857
ity	-6858
▁пребы	-6859
▁династии	-6860
▁Октябрь	-6861
▁охва	-6862
▁Клубная	-6863
▁исследователь	-6864
.&	-6865
▁сообщения	-6866
▁большие	-6867
▁последних	-6868
▁Mar	-6869
▁рецен	-6870
▁попыта	-6871
еве	-6872
ливо	-6873
▁Норве	-6874
▁холодной	-6875
▁лидер	-6876
▁свойства	-6877
▁газо	-6878
▁нена	-6879
▁соба	-6880
вшую	-6881
▁Дом	-6882
▁стихи	-6883
жала	-6884
КО	-6885
▁основным	-6886
▁руководил	-6887
ффи	-6888
▁осна	-6889
ступили	-6890
▁рели	-6891
▁Вильгель	-6892
▁Церков	-6893
▁какой	-6894
▁элементы	-6895
▁эффектив	-6896
восток	-6897
▁Без	-6898
дания	-6899
▁собора	-6900
▁отметил	-6901
стной	-6902
▁бук	-6903
▁Большинство	-6904
ционе	-6905
кут	-6906
▁призван	-6907
▁первоначально	-6908
▁ано	-6909
▁владения	-6910
куда	-6911
▁музыку	-6912
▁принадлежит	-6913
▁времён	-6914
▁созна	-6915
▁прошла	-6916
▁фар	-6917
▁средневе	-6918
▁Греции	-6919
▁здании	-6920
лём	-6921
▁Более	-6922
▁сена	-6923
▁замок	-6924
▁документаль	-6925
▁Роберт	-6926
▁взял	-6927
▁Валь	-6928
▁возро	-6929
▁Дмитрий	-6930
▁«»	-6931
▁Восточной	-6932
центра	-6933
▁ближай	-6934
▁инициати	-6935
▁поддержке	-6936
▁студентов	-6937
ork	-6938
▁заключён	-6939
▁бизнес	-6940
▁вес	-6941
▁разве	-6942
▁колхоз	-6943
ъём	-6944
▁уви	-6945
▁расти	-6946
▁живу	-6947
ect	-6948
тара	-6949
▁звезды	-6950
обще	-6951
▁программе	-6952
▁болезни	-6953
▁депутатом	-6954
тном	-6955
▁Мен	-6956
▁плав	-6957
▁персонажей	-6958
▁изображения	-6959
▁республикан	-6960
▁полицей	-6961
▁конку	-6962
▁Анти	-6963
▁подряд	-6964
▁соревнований	-6965
▁дистанции	-6966
шку	-6967
▁Эми	-6968
▁Шо	-6969
нена	-6970
▁посёлке	-6971
▁крупнейших	-6972
▁стихотвор	-6973
западной	-6974
▁еще	-6975
ib	-6976
▁бума	-6977
▁Вя	-6978
▁юноше	-6979
▁достига	-6980
ведении	-6981
▁считал	-6982
ВО	-6983
довлет	-6984
сках	-6985
▁преподавал	-6986
▁пулем	-6987
▁тури	-6988
▁больших	-6989
▁прибыл	-6990
▁подверга	-6991
▁Тан	-6992
▁английский	-6993
▁оформ	-6994
▁капитан	-6995
нёс	-6996
▁корабль	-6997
етра	-6998
реб	-6999
▁агре	-7000
тала	-7001
▁япон	-7002
▁фини	-7003
▁гипо	-7004
шний	-7005
▁лейб	-7006
▁хозяйств	-7007
▁описание	-7008
▁писателя	-7009
▁пропаган	-7010
▁моне	-7011
▁далее	-7012
▁Уильям	-7013
▁Тро	-7014
сали	-7015
▁Хер	-7016
▁Турции	-7017
▁располагается	-7018
▁комисса	-7019
▁переме	-7020
ано	-7021
▁насто	-7022
▁ворота	-7023
охран	-7024
▁длится	-7025
▁ого	-7026
▁училища	-7027
▁русском	-7028
▁изначально	-7029
▁топо	-7030
▁индекс	-7031
ленно	-7032
▁существу	-7033
▁вариант	-7034
▁съём	-7035
▁Канады	-7036
жащих	-7037
▁главы	-7038
▁посту	-7039
▁появляется	-7040
альные	-7041
новка	-7042
дцать	-7043
▁Am	-7044
▁обнов	-7045
кты	-7046
▁мяг	-7047
▁выступает	-7048
стка	-7049
нём	-7050
западе	-7051
▁эт	-7052
▁l	-7053
стям	-7054
▁композиции	-7055
▁Предпо	-7056
зербайджан	-7057
▁этно	-7058
зиат	-7059
▁земель	-7060
▁американского	-7061
▁длина	-7062
▁клет	-7063
▁природы	-7064
▁усили	-7065
▁поражения	-7066
▁единственным	-7067
нной	-7068
▁живописи	-7069
ИИ	-7070
▁группи	-7071
▁немецких	-7072
▁совершенно	-7073
▁станов	-7074
▁делает	-7075
ведено	-7076
▁бед	-7077
▁поддержки	-7078
▁плей	-7079
▁данный	-7080
ck	-7081
▁проку	-7082
▁принять	-7083
рте	-7084
▁непре	-7085
▁гвардии	-7086
▁особенности	-7087
▁оставался	-7088
▁попро	-7089
▁установи	-7090
▁ов	-7091
▁участвовала	-7092
хослова	-7093
▁писателей	-7094
▁зелё	-7095
▁Коре	-7096
сий	-7097
сомо	-7098
▁проекту	-7099
довал	-7100
▁Анна	-7101
▁числи	-7102
▁пье	-7103
▁состоялось	-7104
ево	-7105
▁свободы	-7106
Пи	-7107
▁вар	-7108
▁полож	-7109
▁Дани	-7110
▁статей	-7111
▁исключительно	-7112
▁измер	-7113
▁гори	-7114
ock	-7115
▁прито	-7116
▁офицеров	-7117
▁финал	-7118
▁вернуться	-7119
▁исчез	-7120
▁Всемир	-7121
тными	-7122
▁женой	-7123
▁Дэви	-7124
▁Комму	-7125
▁Следу	-7126
▁Национального	-7127
▁пожа	-7128
▁запас	-7129
▁прису	-7130
тес	-7131
▁Почто	-7132
▁курс	-7133
▁талан	-7134
ону	-7135
▁этап	-7136
▁окончательно	-7137
ies	-7138
водства	-7139
▁назначения	-7140
▁синте	-7141
▁другу	-7142
ографическое	-7143
▁Австрии	-7144
анг	-7145
▁вино	-7146
▁захо	-7147
веке	-7148
▁владе	-7149
▁масте	-7150
▁действие	-7151
▁колони	-7152
▁половины	-7153
▁стрель	-7154
▁непри	-7155
лейтен	-7156
▁кано	-7157
▁гос	-7158
▁Арген	-7159
▁безу	-7160
▁жесто	-7161
▁жё	-7162
▁Беларуси	-7163
▁недалеко	-7164
стория	-7165
ётр	-7166
сена	-7167
шина	-7168
▁сом	-7169
▁машины	-7170
▁впечат	-7171
▁кад	-7172
▁тему	-7173
▁раскры	-7174
▁причина	-7175
▁учреждения	-7176
▁конкре	-7177
▁сва	-7178
▁New	-7179
▁остальные	-7180
рованные	-7181
мова	-7182
▁уеха	-7183
▁идеи	-7184
ica	-7185
") —	-7186
▁крупные	-7187
▁наци	-7188
полков	-7189
логических	-7190
сро	-7191
хождения	-7192
▁выяс	-7193
лица	-7194
▁дево	-7195
▁наси	-7196
▁тёплым	-7197
ровалась	-7198
▁конференции	-7199
▁бле	-7200
▁переиз	-7201
тран	-7202
чан	-7203
▁зданий	-7204
▁библиотека	-7205
▁Кни	-7206
новых	-7207
▁элементов	-7208
▁яко	-7209
дап	-7210
▁экземпля	-7211
▁министр	-7212
▁Ну	-7213
▁результатом	-7214
берт	-7215
▁вышли	-7216
▁сейчас	-7217
▁ул	-7218
нены	-7219
▁транспорта	-7220
▁перено	-7221
▁районах	-7222
▁хозяйство	-7223
тация	-7224
ont	-7225
▁преоблада	-7226
Би	-7227
▁получает	-7228
▁телевизион	-7229
езде	-7230
▁Эдуар	-7231
▁Виктор	-7232
▁списке	-7233
▁миру	-7234
▁глава	-7235
▁Ирландии	-7236
▁Именно	-7237
чалась	-7238
▁сих	-7239
▁новая	-7240
▁герцог	-7241
вающих	-7242
▁православной	-7243
▁гости	-7244
ea	-7245
▁журналист	-7246
ковая	-7247
▁выбор	-7248
▁третьего	-7249
село	-7250
шено	-7251
▁вдох	-7252
▁Одна	-7253
▁телесериа	-7254
▁Новоси	-7255
совер	-7256
▁полузащи	-7257
▁Официаль	-7258
▁Продол	-7259
▁элемента	-7260
Луч	-7261
▁персонажа	-7262
▁подразделения	-7263
▁Василий	-7264
▁авиации	-7265
▁покров	-7266
▁требования	-7267
▁Китай	-7268
▁Участвовал	-7269
▁молодых	-7270
▁автора	-7271
▁предприятий	-7272
▁термин	-7273
▁намер	-7274
▁компаний	-7275
▁вышед	-7276
▁ООН	-7277
▁большого	-7278
жая	-7279
▁портре	-7280
▁фронте	-7281
▁Исполь	-7282
ваясь	-7283
▁парк	-7284
виль	-7285
поля	-7286
▁прида	-7287
рить	-7288
▁руководитель	-7289
▁парка	-7290
▁Тихо	-7291
ФА	-7292
▁Константино	-7293
нейших	-7294
жность	-7295
▁Интер	-7296
пки	-7297
бки	-7298
▁леса	-7299
хранили	-7300
▁усадь	-7301
товского	-7302
▁командовал	-7303
▁известна	-7304
▁языках	-7305
▁моди	-7306
▁гео	-7307
▁археологи	-7308
▁мне	-7309
▁ассоциации	-7310
номо	-7311
▁Золо	-7312
ляется	-7313
тников	-7314
▁остав	-7315
▁Красного	-7316
млрд	-7317
▁Сент	-7318
няли	-7319
▁самолётов	-7320
▁футболи	-7321
гун	-7322
▁юг	-7323
зне	-7324
▁потребо	-7325
▁карто	-7326
▁Чтобы	-7327
▁здра	-7328
▁воспри	-7329
▁сул	-7330
Ста	-7331
кове	-7332
▁Сво	-7333
▁любо	-7334
низ	-7335
кедо	-7336
▁двора	-7337
стика	-7338
▁лицен	-7339
шом	-7340
▁мемо	-7341
▁крайне	-7342
▁Баш	-7343
▁Другие	-7344
▁активи	-7345
▁российской	-7346
как	-7347
труд	-7348
▁используют	-7349
▁You	-7350
виков	-7351
▁использованием	-7352
ХЛ	-7353
ace	-7354
лое	-7355
▁Воору	-7356
▁инжене	-7357
▁проходили	-7358
▁подверг	-7359
стных	-7360
lay	-7361
▁паци	-7362
▁начались	-7363
дея	-7364
кратный	-7365
▁существования	-7366
▁Th	-7367
▁могла	-7368
▁независимости	-7369
▁врач	-7370
▁данной	-7371
▁атако	-7372
▁пытается	-7373
линд	-7374
ностях	-7375
дзи	-7376
▁которыми	-7377
щений	-7378
мбу	-7379
▁приняла	-7380
жидан	-7381
▁пункта	-7382
▁дни	-7383
BC	-7384
▁Сове	-7385
кости	-7386
sp	-7387
▁Заслуженный	-7388
твори	-7389
▁военные	-7390
▁Жа	-7391
▁боро	-7392
▁жа	-7393
▁месторо	-7394
▁обстоя	-7395
▁приходи	-7396
▁многочисленные	-7397
▁Первое	-7398
▁Маль	-7399
знача	-7400
▁повтор	-7401
▁сайте	-7402
ment	-7403
▁самолёта	-7404
▁французского	-7405
▁изгна	-7406
▁кг	-7407
▁позволило	-7408
▁учёный	-7409
Йорке	-7410
▁основные	-7411
тип	-7412
▁женат	-7413
▁отличается	-7414
мара	-7415
▁восемь	-7416
▁италья	-7417
▁Результа	-7418
говой	-7419
▁супер	-7420
рья	-7421
▁стрелкового	-7422
▁плем	-7423
▁Русской	-7424
Кон	-7425
▁Финляндии	-7426
▁фанта	-7427
▁Эл	-7428
бн	-7429
▁эста	-7430
Запад	-7431
▁ранен	-7432
фраструктура	-7433
▁музее	-7434
руются	-7435
▁координа	-7436
▁гарни	-7437
▁помимо	-7438
ждает	-7439
▁профессором	-7440
гана	-7441
▁постра	-7442
кру	-7443
пора	-7444
▁Дол	-7445
леб	-7446
▁Павел	-7447
дут	-7448
▁функциони	-7449
▁регули	-7450
▁воспита	-7451
▁открытия	-7452
▁Вашинг	-7453
▁РАН	-7454
▁Елиза	-7455
▁нужно	-7456
▁предположи	-7457
▁подроб	-7458
▁g	-7459
▁реформы	-7460
▁Сверд	-7461
ньше	-7462
▁хор	-7463
▁переведён	-7464
▁стратеги	-7465
▁пры	-7466
▁доход	-7467
▁Викто	-7468
▁госпо	-7469
▁тура	-7470
сылки	-7471
▁люб	-7472
▁конец	-7473
▁футболу	-7474
жество	-7475
▁областного	-7476
Кар	-7477
▁победитель	-7478
сай	-7479
▁совершен	-7480
▁условия	-7481
▁моз	-7482
▁аспи	-7483
▁привлека	-7484
▁поэт	-7485
▁тенни	-7486
грации	-7487
▁ВКП	-7488
▁растения	-7489
▁лето	-7490
▁технологии	-7491
фана	-7492
▁визи	-7493
▁Колумби	-7494
▁Советской	-7495
▁свыше	-7496
▁использовал	-7497
▁отсутствие	-7498
▁сложности	-7499
матического	-7500
▁мусульман	-7501
▁номером	-7502
▁Трои	-7503
риф	-7504
чкой	-7505
▁Пётр	-7506
▁заяв	-7507
▁ограничен	-7508
▁армией	-7509
▁Особ	-7510
жается	-7511
▁зарабо	-7512
▁мисси	-7513
▁храни	-7514
▁Чёр	-7515
▁населённые	-7516
▁Центральной	-7517
чёр	-7518
▁сделан	-7519
мик	-7520
▁Израиля	-7521
▁перемен	-7522
воло	-7523
▁Бей	-7524
нау	-7525
жка	-7526
▁Лиги	-7527
вига	-7528
дации	-7529
пис	-7530
▁князь	-7531
▁любой	-7532
емое	-7533
▁Дании	-7534
номор	-7535
▁Земли	-7536
▁делам	-7537
▁месяц	-7538
▁такими	-7539
▁положения	-7540
▁Председа	-7541
физи	-7542
мому	-7543
▁стиль	-7544
▁морской	-7545
новей	-7546
▁Супер	-7547
дзе	-7548
▁Афи	-7549
▁подчи	-7550
нные	-7551
▁снаря	-7552
▁призёром	-7553
▁вои	-7554
▁сверх	-7555
▁ир	-7556
▁Ино	-7557
рави	-7558
▁Сне	-7559
ступить	-7560
▁стоит	-7561
▁КО	-7562
▁Сай	-7563
▁историк	-7564
▁герман	-7565
зар	-7566
▁немецкой	-7567
толиче	-7568
▁выво	-7569
евской	-7570
▁блю	-7571
▁Новый	-7572
ехал	-7573
▁мост	-7574
▁качества	-7575
▁освобождения	-7576
▁Всероссийской	-7577
▁Аф	-7578
▁Петров	-7579
▁авторов	-7580
▁наряду	-7581
▁сборник	-7582
▁Осо	-7583
▁резко	-7584
▁имена	-7585
▁специально	-7586
▁обоих	-7587
поро	-7588
▁потери	-7589
▁Одновременно	-7590
надцати	-7591
▁культуре	-7592
тарём	-7593
▁ще	-7594
▁Псков	-7595
▁раньше	-7596
▁имеются	-7597
чнее	-7598
▁Архангель	-7599
▁превос	-7600
▁спец	-7601
лизации	-7602
▁Два	-7603
▁сексу	-7604
▁дизай	-7605
▁следующих	-7606
▁многолет	-7607
▁приобрет	-7608
▁Bl	-7609
▁совхо	-7610
▁концов	-7611
Аль	-7612
бера	-7613
жисс	-7614
▁сё	-7615
▁четверть	-7616
orld	-7617
▁городом	-7618
▁РККА	-7619
тились	-7620
▁последней	-7621
▁возле	-7622
▁Спу	-7623
▁бюро	-7624
▁сыновей	-7625
исследователь	-7626
▁попытки	-7627
рачи	-7628
▁Альбом	-7629
▁следующим	-7630
▁парламента	-7631
▁слабо	-7632
ward	-7633
элект	-7634
логов	-7635
▁трам	-7636
▁отды	-7637
▁силь	-7638
менов	-7639
▁зарубе	-7640
▁фильмах	-7641
▁Право	-7642
▁последователь	-7643
разу	-7644
спол	-7645
▁Гей	-7646
▁территориаль	-7647
▁дисципли	-7648
▁разработки	-7649
▁орудия	-7650
▁опере	-7651
ровалось	-7652
▁францу	-7653
▁Air	-7654
▁энергии	-7655
ich	-7656
щему	-7657
▁инвести	-7658
▁выступать	-7659
около	-7660
▁предложен	-7661
▁астроно	-7662
дума	-7663
▁судов	-7664
▁выдели	-7665
нические	-7666
▁бассейн	-7667
▁прине	-7668
▁гло	-7669
жится	-7670
";	-7671
ГБ	-7672
▁кинемато	-7673
▁заканчи	-7674
▁Юрий	-7675
▁наступление	-7676
▁Болгарии	-7677
▁дивизиона	-7678
стные	-7679
ИК	-7680
▁дворян	-7681
▁цифро	-7682
▁выходит	-7683
▁хло	-7684
▁Ростов	-7685
▁Кай	-7686
пя	-7687
▁дири	-7688
▁письмо	-7689
▁святого	-7690
▁епископа	-7691
▁сообщил	-7692
▁зоны	-7693
был	-7694
тед	-7695
дение	-7696
▁фраг	-7697
▁данного	-7698
▁мульт	-7699
▁торговли	-7700
мур	-7701
▁Тверской	-7702
▁российского	-7703
ond	-7704
▁w	-7705
баты	-7706
▁хотел	-7707
▁Яков	-7708
▁оказались	-7709
▁Ближай	-7710
▁награды	-7711
Сер	-7712
▁Строи	-7713
бами	-7714
▁газете	-7715
▁выпустил	-7716
берга	-7717
▁диалек	-7718
новича	-7719
▁Олимпиа	-7720
▁НК	-7721
▁ауди	-7722
▁Узбеки	-7723
▁звуча	-7724
▁объявлено	-7725
▁Кё	-7726
▁анали	-7727
▁Зу	-7728
▁смогли	-7729
стого	-7730
tern	-7731
▁тысячи	-7732
АС	-7733
ъек	-7734
▁военнослу	-7735
▁Руко	-7736
▁работой	-7737
бит	-7738
▁аспиран	-7739
▁продюсе	-7740
▁мили	-7741
цикло	-7742
▁Доб	-7743
меров	-7744
▁болга	-7745
▁Великого	-7746
▁Оде	-7747
тарь	-7748
ровались	-7749
щина	-7750
Ман	-7751
▁немецкого	-7752
ix	-7753
▁присоедин	-7754
▁устья	-7755
ru	-7756
▁идёт	-7757
▁татар	-7758
▁Мир	-7759
▁пита	-7760
▁приё	-7761
▁дели	-7762
▁поводу	-7763
▁курсы	-7764
▁яй	-7765
▁технику	-7766
▁ава	-7767
ьян	-7768
▁обшир	-7769
▁сфере	-7770
▁использовались	-7771
лео	-7772
▁конгре	-7773
ствий	-7774
▁магни	-7775
▁Сар	-7776
▁Зако	-7777
▁Выступал	-7778
кг	-7779
▁переехала	-7780
ственными	-7781
▁знак	-7782
жский	-7783
чев	-7784
мороз	-7785
▁сама	-7786
▁разря	-7787
▁израи	-7788
матические	-7789
▁статье	-7790
▁корен	-7791
▁спектак	-7792
уголь	-7793
▁декора	-7794
▁Швейцарии	-7795
рийской	-7796
ковый	-7797
щению	-7798
»",	-7799
 %).	-7800
▁Ву	-7801
джер	-7802
шений	-7803
▁Нар	-7804
АР	-7805
нений	-7806
▁влиянием	-7807
▁стек	-7808
чиком	-7809
▁Россию	-7810
▁связыва	-7811
▁предостав	-7812
▁жид	-7813
▁составляют	-7814
ate	-7815
▁венгер	-7816
▁играет	-7817
▁использует	-7818
▁обратно	-7819
▁торже	-7820
▁считают	-7821
▁герой	-7822
голов	-7823
▁герцога	-7824
▁хвой	-7825
новен	-7826
▁леги	-7827
хен	-7828
раста	-7829
▁Авгу	-7830
▁упомя	-7831
▁соз	-7832
▁первонача	-7833
▁Буду	-7834
ступления	-7835
▁Военно	-7836
▁Венгрии	-7837
▁наиболь	-7838
стема	-7839
нда	-7840
ждены	-7841
▁источников	-7842
▁звезда	-7843
▁Стан	-7844
▁!	-7845
▁вследствие	-7846
▁участвовали	-7847
▁Общая	-7848
▁ство	-7849
▁Боб	-7850
▁сюже	-7851
▁Само	-7852
ёс	-7853
хт	-7854
▁Мур	-7855
▁запла	-7856
▁нынеш	-7857
▁резиден	-7858
▁своем	-7859
стую	-7860
ственность	-7861
▁остаётся	-7862
ённых	-7863
▁противоре	-7864
▁прока	-7865
▁Армении	-7866
▁Литера	-7867
▁Распространение	-7868
стах	-7869
▁огонь	-7870
▁альтерна	-7871
▁партию	-7872
▁выпустила	-7873
▁побед	-7874
ляет	-7875
ходила	-7876
ллин	-7877
БА	-7878
вами	-7879
бал	-7880
тли	-7881
▁предмет	-7882
▁известного	-7883
▁недели	-7884
ational	-7885
▁драма	-7886
▁Пример	-7887
▁составлял	-7888
дьми	-7889
▁тёплый	-7890
▁вопросы	-7891
кость	-7892
чия	-7893
полу	-7894
▁миллиона	-7895
▁испыта	-7896
▁неделю	-7897
мыми	-7898
стым	-7899
▁пластин	-7900
▁Татар	-7901
▁собор	-7902
▁канала	-7903
▁основу	-7904
▁наследия	-7905
▁Соединён	-7906
рактери	-7907
▁Библи	-7908
▁прогре	-7909
▁гастро	-7910
гере	-7911
ющейся	-7912
ьес	-7913
▁скан	-7914
▁индей	-7915
▁биологи	-7916
ire	-7917
▁даёт	-7918
▁музыка	-7919
лосо	-7920
▁изучения	-7921
теат	-7922
▁провер	-7923
▁чрезвычай	-7924
▁Жена	-7925
▁энерге	-7926
значально	-7927
iz	-7928
▁среды	-7929
▁сержан	-7930
воохран	-7931
▁снаб	-7932
▁самолёт	-7933
▁приходится	-7934
▁кварта	-7935
▁XIV	-7936
▁Фрэн	-7937
":	-7938
▁Главный	-7939
чами	-7940
лови	-7941
▁кирпи	-7942
▁границе	-7943
▁представлена	-7944
годов	-7945
▁квалифика	-7946
берна	-7947
▁демонстри	-7948
теле	-7949
▁рассказывает	-7950
▁азербайджан	-7951
▁Географическое	-7952
▁обита	-7953
▁Джек	-7954
int	-7955
▁возглавля	-7956
▁сочета	-7957
▁пары	-7958
▁интен	-7959
▁правах	-7960
▁старшим	-7961
▁завершения	-7962
вёт	-7963
▁препара	-7964
▁численности	-7965
тоне	-7966
▁австра	-7967
енин	-7968
▁преем	-7969
board	-7970
▁продо	-7971
▁Ира	-7972
▁оставил	-7973
▁военную	-7974
чье	-7975
▁абсолю	-7976
▁свобод	-7977
▁выполнен	-7978
ане	-7979
змом	-7980
▁письмен	-7981
▁едино	-7982
▁стены	-7983
исто	-7984
▁тремя	-7985
стного	-7986
▁Средний	-7987
ствовала	-7988
▁текст	-7989
▁конструкции	-7990
▁боевой	-7991
нси	-7992
енов	-7993
▁De	-7994
дали	-7995
▁Почтовый	-7996
▁лучше	-7997
▁убит	-7998
▁двое	-7999
▁удоб	-8000
▁поступа	-8001
циям	-8002
▁модерни	-8003
▁Ур	-8004
две	-8005
Вт	-8006
бассе	-8007
примеча	-8008
▁представляют	-8009
▁оружие	-8010
▁европейских	-8011
▁Дер	-8012
▁нер	-8013
тером	-8014
▁хиру	-8015
▁оказалась	-8016
sh	-8017
ровский	-8018
ткой	-8019
ционным	-8020
▁другого	-8021
говори	-8022
▁напад	-8023
▁Югосла	-8024
зона	-8025
▁надпись	-8026
▁руководителем	-8027
энер	-8028
▁ситуации	-8029
▁встречи	-8030
кского	-8031
эра	-8032
▁орби	-8033
▁консу	-8034
▁высотой	-8035
хана	-8036
стая	-8037
▁впадения	-8038
Ру	-8039
два	-8040
▁опыт	-8041
цена	-8042
россий	-8043
▁Уил	-8044
▁Джордж	-8045
▁человеком	-8046
▁Твор	-8047
▁продукции	-8048
▁выступала	-8049
▁аку	-8050
▁контр	-8051
Чер	-8052
▁женщина	-8053
самб	-8054
▁сотрудников	-8055
▁выборы	-8056
▁серию	-8057
▁земля	-8058
ost	-8059
▁службе	-8060
гера	-8061
страции	-8062
▁откуда	-8063
▁открыта	-8064
Дж	-8065
▁творчества	-8066
▁периоди	-8067
▁домохозяй	-8068
▁применения	-8069
коле	-8070
маном	-8071
никова	-8072
▁сража	-8073
▁начался	-8074
▁советского	-8075
▁зрителей	-8076
фия	-8077
▁ужа	-8078
▁различи	-8079
щиком	-8080
▁группо	-8081
тическое	-8082
хова	-8083
▁швей	-8084
▁Песня	-8085
▁Чарль	-8086
▁распространение	-8087
▁третьей	-8088
фера	-8089
▁Леони	-8090
▁древне	-8091
▁медалью	-8092
вляют	-8093
ентов	-8094
▁братьев	-8095
▁Мэри	-8096
▁дре	-8097
лую	-8098
джет	-8099
▁нега	-8100
▁государство	-8101
щер	-8102
▁Стани	-8103
▁известны	-8104
ловский	-8105
▁держится	-8106
▁удовлет	-8107
▁катастро	-8108
▁французской	-8109
тле	-8110
части	-8111
▁выбран	-8112
▁ВС	-8113
▁автома	-8114
▁моду	-8115
▁фунда	-8116
▁обосно	-8117
рованию	-8118
▁вок	-8119
фонный	-8120
▁знаком	-8121
тировать	-8122
Рус	-8123
▁рассе	-8124
▁картин	-8125
▁ежегодно	-8126
▁тира	-8127
ёд	-8128
▁существование	-8129
семей	-8130
летнего	-8131
▁пограни	-8132
▁Атлан	-8133
▁пережи	-8134
▁большинства	-8135
Хо	-8136
тивы	-8137
▁проектов	-8138
пле	-8139
▁урав	-8140
▁необходимости	-8141
лизован	-8142
▁смерть	-8143
▁оккупи	-8144
▁Церкви	-8145
▁предложение	-8146
▁железнодорожной	-8147
▁братом	-8148
циан	-8149
градской	-8150
▁скорости	-8151
▁географи	-8152
дир	-8153
▁воду	-8154
нями	-8155
ленная	-8156
▁раздели	-8157
Вы	-8158
▁формирования	-8159
товые	-8160
▁зал	-8161
▁Сена	-8162
▁причине	-8163
▁минуте	-8164
▁неожидан	-8165
польского	-8166
▁причиной	-8167
▁завоевала	-8168
▁бригада	-8169
паса	-8170
▁строй	-8171
▁одному	-8172
бия	-8173
▁позицию	-8174
хии	-8175
▁кафедрой	-8176
▁веков	-8177
▁любви	-8178
▁Большая	-8179
▁Департа	-8180
ame	-8181
▁аэрод	-8182
▁чемпионов	-8183
фести	-8184
▁племян	-8185
торе	-8186
группы	-8187
рованного	-8188
▁соглашение	-8189
▁автодороге	-8190
▁Риме	-8191
▁известность	-8192
▁Солн	-8193
▁программу	-8194
▁молеку	-8195
рый	-8196
▁Китае	-8197
лке	-8198
льда	-8199
▁побережье	-8200
▁Мюн	-8201
▁Дмит	-8202
альный	-8203
▁Кро	-8204
▁сельский	-8205
Вер	-8206
▁контрак	-8207
▁Церковь	-8208
▁музыкальных	-8209
▁пожи	-8210
Лю	-8211
▁сражения	-8212
галь	-8213
руя	-8214
▁социальной	-8215
льти	-8216
отланд	-8217
▁Джеймс	-8218
▁атаку	-8219
illboard	-8220
товской	-8221
ряз	-8222
▁VII	-8223
ерусали	-8224
▁Африки	-8225
цин	-8226
▁вызван	-8227
▁показал	-8228
▁паль	-8229
провод	-8230
чают	-8231
▁Дости	-8232
▁побережья	-8233
▁Возмо	-8234
▁народных	-8235
▁верхней	-8236
кварти	-8237
демокра	-8238
▁рыб	-8239
сор	-8240
▁ваго	-8241
▁пытался	-8242
▁недель	-8243
▁известным	-8244
▁незна	-8245
▁штате	-8246
▁высокого	-8247
▁Победи	-8248
ros	-8249
бычно	-8250
▁устойчи	-8251
женных	-8252
▁скорее	-8253
Пер	-8254
▁сестра	-8255
▁академию	-8256
▁национальных	-8257
гали	-8258
▁участии	-8259
▁социальных	-8260
▁Родилась	-8261
ально	-8262
Ай	-8263
▁Начиная	-8264
▁преступления	-8265
») —	-8266
шала	-8267
вон	-8268
▁вёл	-8269
фом	-8270
▁Около	-8271
▁типо	-8272
▁флот	-8273
▁районы	-8274
▁объём	-8275
▁блока	-8276
▁местом	-8277
▁Award	-8278
▁информацию	-8279
▁Среднегодовое	-8280
▁старшего	-8281
▁поколения	-8282
▁такое	-8283
▁среднего	-8284
▁орудий	-8285
ист	-8286
▁комитет	-8287
линг	-8288
циклопе	-8289
▁конкурса	-8290
▁автодороги	-8291
▁выйти	-8292
▁жёст	-8293
▁регулярно	-8294
▁Иоси	-8295
▁Союз	-8296
▁уто	-8297
▁гек	-8298
▁Изначально	-8299
▁социалисти	-8300
ung	-8301
теро	-8302
▁вблизи	-8303
▁местной	-8304
ствования	-8305
▁фу	-8306
▁металли	-8307
▁проиграл	-8308
ец	-8309
▁возвышен	-8310
ek	-8311
мба	-8312
▁Лор	-8313
лик	-8314
▁Кру	-8315
подоб	-8316
строва	-8317
▁батаре	-8318
▁конечном	-8319
тяну	-8320
▁столицы	-8321
боры	-8322
▁Кристи	-8323
▁Доне	-8324
▁командование	-8325
▁Тео	-8326
▁стадии	-8327
▁Было	-8328
▁ушёл	-8329
▁случаев	-8330
▁вторая	-8331
▁постройки	-8332
▁креди	-8333
щают	-8334
▁американских	-8335
▁Хол	-8336
▁развитию	-8337
▁оценки	-8338
▁ие	-8339
▁подгото	-8340
▁горизон	-8341
▁Баку	-8342
▁h	-8343
▁Каре	-8344
▁термина	-8345
▁независимость	-8346
▁расположенный	-8347
▁научный	-8348
▁погибли	-8349
▁нарко	-8350
▁материалы	-8351
▁Киеве	-8352
▁сумел	-8353
▁опо	-8354
▁картина	-8355
▁пусты	-8356
сленность	-8357
▁жало	-8358
▁муниципальное	-8359
менту	-8360
▁прибли	-8361
зму	-8362
вшимся	-8363
▁водохранили	-8364
▁гне	-8365
тивное	-8366
▁населённый	-8367
▁Крыма	-8368
▁началу	-8369
ver	-8370
▁Каро	-8371
хта	-8372
кино	-8373
▁Была	-8374
▁Эстонии	-8375
ows	-8376
▁деятельностью	-8377
ber	-8378
тилась	-8379
▁известные	-8380
▁предприятие	-8381
▁Большого	-8382
▁сек	-8383
▁оди	-8384
рийского	-8385
скопа	-8386
▁Марк	-8387
▁Абду	-8388
▁общественной	-8389
вик	-8390
ждено	-8391
▁отношению	-8392
▁XIII	-8393
▁Род	-8394
▁адвока	-8395
▁батальон	-8396
лар	-8397
▁преодо	-8398
▁инициативе	-8399
▁информация	-8400
▁вообще	-8401
тировала	-8402
▁будущего	-8403
▁сход	-8404
▁дворе	-8405
▁водохозяй	-8406
чики	-8407
▁Уай	-8408
▁общественного	-8409
▁причинам	-8410
летов	-8411
▁всеми	-8412
▁единица	-8413
▁мужа	-8414
▁брак	-8415
▁пришёл	-8416
▁Шотландии	-8417
▁метод	-8418
▁света	-8419
▁Француз	-8420
твра	-8421
тельств	-8422
ленного	-8423
▁Горь	-8424
кала	-8425
▁матчи	-8426
▁здравоохран	-8427
▁рост	-8428
▁Пале	-8429
▁судо	-8430
пп	-8431
рядок	-8432
▁услу	-8433
▁отказыва	-8434
▁следо	-8435
▁русско	-8436
экономи	-8437
види	-8438
▁брака	-8439
▁повстан	-8440
зацию	-8441
▁задачи	-8442
тинской	-8443
▁зато	-8444
▁краси	-8445
ore	-8446
ждением	-8447
▁возраст	-8448
енко	-8449
ническое	-8450
▁кандидата	-8451
▁выступлений	-8452
▁соав	-8453
▁Зо	-8454
▁пола	-8455
оке	-8456
▁выгля	-8457
▁кантона	-8458
▁преда	-8459
▁розыгры	-8460
нор	-8461
фильм	-8462
▁сцен	-8463
гих	-8464
▁достав	-8465
▁охраны	-8466
▁выполня	-8467
▁пределами	-8468
▁империя	-8469
щины	-8470
▁принимает	-8471
▁героя	-8472
▁Бон	-8473
▁сыграла	-8474
лио	-8475
▁отдельные	-8476
ладель	-8477
▁школ	-8478
тинского	-8479
▁сотрудник	-8480
▁популя	-8481
▁Ряза	-8482
нис	-8483
▁Одним	-8484
▁разрабаты	-8485
▁Новосибир	-8486
завод	-8487
шель	-8488
▁контроля	-8489
пр	-8490
гая	-8491
роваться	-8492
▁Ранее	-8493
▁верто	-8494
▁Старо	-8495
▁автомобилей	-8496
читается	-8497
▁запись	-8498
▁заведующий	-8499
▁проме	-8500
▁улиц	-8501
▁лице	-8502
мбле	-8503
▁мяч	-8504
▁Расположена	-8505
▁памятника	-8506
▁преподаватель	-8507
▁церемонии	-8508
▁ут	-8509
ниям	-8510
▁Бю	-8511
▁закончи	-8512
щики	-8513
▁буква	-8514
▁домой	-8515
▁являлась	-8516
▁Иг	-8517
▁Анны	-8518
▁погре	-8519
жённых	-8520
▁Co	-8521
▁седь	-8522
КС	-8523
▁соли	-8524
▁Тол	-8525
▁Кири	-8526
▁Сталин	-8527
ас	-8528
▁полковник	-8529
iss	-8530
▁друзья	-8531
▁чемпионатов	-8532
образо	-8533
▁использовался	-8534
ish	-8535
▁заказ	-8536
▁ряде	-8537
ционное	-8538
▁посоль	-8539
▁гимназии	-8540
▁строительстве	-8541
онер	-8542
▁поо	-8543
▁Численность	-8544
VI	-8545
влять	-8546
новому	-8547
▁битвы	-8548
▁крови	-8549
▁дорог	-8550
▁форте	-8551
нула	-8552
▁Новая	-8553
▁альбоме	-8554
▁поднима	-8555
▁рестав	-8556
▁Польше	-8557
▁Ус	-8558
▁Вне	-8559
манов	-8560
чаются	-8561
▁Мака	-8562
▁предотвра	-8563
ету	-8564
кеты	-8565
▁редактор	-8566
▁брю	-8567
▁режиссёром	-8568
▁закона	-8569
ide	-8570
▁одержал	-8571
▁приговор	-8572
ллек	-8573
лизма	-8574
▁Пос	-8575
ood	-8576
▁моста	-8577
лённые	-8578
▁Телефонный	-8579
▁включают	-8580
▁Степа	-8581
▁предложи	-8582
▁родо	-8583
▁Берлине	-8584
▁отзывы	-8585
надцать	-8586
раздо	-8587
тности	-8588
совет	-8589
ступив	-8590
▁компонен	-8591
▁артиллерии	-8592
▁пьес	-8593
▁заслуги	-8594
зантий	-8595
▁заместителя	-8596
▁тип	-8597
▁использовали	-8598
▁"(	-8599
▁отобра	-8600
▁сложи	-8601
▁городских	-8602
▁отцом	-8603
▁наконец	-8604
▁музыкальной	-8605
▁южно	-8606
следовал	-8607
▁приказ	-8608
▁верхов	-8609
▁порядке	-8610
▁динами	-8611
▁адап	-8612
▁костю	-8613
сист	-8614
▁мнение	-8615
▁состояния	-8616
▁возвращения	-8617
▁направи	-8618
цах	-8619
▁прив	-8620
▁полез	-8621
ромышлен	-8622
▁людьми	-8623
▁Марга	-8624
следу	-8625
скар	-8626
горит	-8627
▁Чемпион	-8628
шкина	-8629
бая	-8630
▁причин	-8631
ёры	-8632
▁обмен	-8633
▁усилия	-8634
▁лета	-8635
▁применение	-8636
ани	-8637
енных	-8638
▁i	-8639
▁Мей	-8640
▁связанных	-8641
тео	-8642
▁XII	-8643
▁фрак	-8644
▁Tim	-8645
пуль	-8646
чники	-8647
ционную	-8648
▁противостоя	-8649
правление	-8650
▁труп	-8651
▁Хорва	-8652
▁противополож	-8653
▁хозя	-8654
▁победителем	-8655
▁разнообраз	-8656
▁источниках	-8657
лана	-8658
жоу	-8659
▁стаби	-8660
сет	-8661
▁Истори	-8662
▁партизан	-8663
▁логи	-8664
▁режима	-8665
лков	-8666
рока	-8667
▁третье	-8668
▁войско	-8669
плы	-8670
▁общественных	-8671
▁установлена	-8672
▁эмо	-8673
▁кров	-8674
▁бизне	-8675
▁сообщение	-8676
▁капитана	-8677
ear	-8678
вающие	-8679
▁голланд	-8680
▁община	-8681
▁каждом	-8682
мирал	-8683
право	-8684
▁галере	-8685
ure	-8686
теров	-8687
▁редактором	-8688
▁атаки	-8689
еву	-8690
▁выпла	-8691
гию	-8692
▁десять	-8693
▁выпущена	-8694
▁Чемпионат	-8695
▁департамента	-8696
▁Брай	-8697
▁землю	-8698
▁первенстве	-8699
▁изучал	-8700
▁многочисленных	-8701
che	-8702
ффект	-8703
old	-8704
▁адре	-8705
етро	-8706
▁брази	-8707
▁Теат	-8708
▁наград	-8709
▁консуль	-8710
▁Сева	-8711
▁доброволь	-8712
▁заключения	-8713
мно	-8714
стить	-8715
чник	-8716
кови	-8717
чёте	-8718
▁поединке	-8719
▁переговоры	-8720
коричне	-8721
прос	-8722
oll	-8723
▁называли	-8724
мография	-8725
▁дя	-8726
таны	-8727
▁денег	-8728
▁стол	-8729
▁благотвори	-8730
▁фре	-8731
▁конкурен	-8732
▁входило	-8733
ношения	-8734
лиственных	-8735
▁сор	-8736
▁активности	-8737
зоне	-8738
▁дума	-8739
рёл	-8740
▁заняли	-8741
Моск	-8742
▁эксперименталь	-8743
▁репре	-8744
▁класс	-8745
дук	-8746
▁Древ	-8747
▁последующие	-8748
▁международной	-8749
графа	-8750
▁крепость	-8751
▁национальный	-8752
сная	-8753
ссию	-8754
▁казах	-8755
▁жу	-8756
▁днев	-8757
▁отмечает	-8758
▁домашних	-8759
▁разработке	-8760
Фи	-8761
юй	-8762
▁бота	-8763
▁технологий	-8764
▁годам	-8765
дила	-8766
▁Жен	-8767
▁депутат	-8768
▁поэта	-8769
шили	-8770
▁конфи	-8771
▁берега	-8772
▁композитор	-8773
дать	-8774
▁ощу	-8775
▁Премьер	-8776
▁Фре	-8777
стый	-8778
▁воде	-8779
▁Music	-8780
▁структуры	-8781
▁Святой	-8782
матической	-8783
▁программа	-8784
▁Круп	-8785
▁номинации	-8786
▁минима	-8787
▁автори	-8788
энь	-8789
дт	-8790
▁провести	-8791
▁экипажа	-8792
▁Президента	-8793
▁английского	-8794
▁Примеча	-8795
пси	-8796
▁Тех	-8797
▁сообщества	-8798
▁терми	-8799
тивным	-8800
▁роты	-8801
▁стиля	-8802
▁сцены	-8803
рони	-8804
▁насчитывалось	-8805
▁ува	-8806
▁Сезон	-8807
▁шотланд	-8808
ология	-8809
▁угле	-8810
прин	-8811
▁лечения	-8812
▁ограничи	-8813
щаться	-8814
эл	-8815
ath	-8816
▁жить	-8817
дает	-8818
▁устрои	-8819
▁ранены	-8820
▁Украина	-8821
верса	-8822
▁коали	-8823
▁бен	-8824
▁собрание	-8825
▁высшего	-8826
▁Калу	-8827
▁библиотеки	-8828
ниор	-8829
коне	-8830
▁открыл	-8831
▁исход	-8832
▁Обще	-8833
▁осуществляется	-8834
▁Прин	-8835
▁языки	-8836
ina	-8837
▁перешла	-8838
AS	-8839
▁представления	-8840
зме	-8841
▁Gro	-8842
▁Comp	-8843
тору	-8844
▁Инфраструктура	-8845
кай	-8846
дана	-8847
ey	-8848
Восто	-8849
▁четвертьфина	-8850
▁эпоху	-8851
▁оборудования	-8852
▁соответствует	-8853
ральная	-8854
GC	-8855
жают	-8856
▁Челя	-8857
▁моби	-8858
▁десан	-8859
пон	-8860
▁пери	-8861
▁украинский	-8862
▁вспомина	-8863
▁Досто	-8864
лис	-8865
найтед	-8866
новение	-8867
▁Орен	-8868
▁участке	-8869
▁огне	-8870
▁клубов	-8871
сками	-8872
широко	-8873
лона	-8874
▁джа	-8875
▁вело	-8876
жин	-8877
▁Учился	-8878
▁ансамб	-8879
кторы	-8880
man	-8881
ездов	-8882
▁гонке	-8883
▁Будучи	-8884
▁Bo	-8885
омет	-8886
▁партн	-8887
▁крыла	-8888
ug	-8889
▁Гай	-8890
матический	-8891
гай	-8892
▁англо	-8893
вто	-8894
▁участники	-8895
▁насеко	-8896
▁Разрабо	-8897
▁МГУ	-8898
▁освя	-8899
торами	-8900
▁входя	-8901
▁защитник	-8902
▁ранних	-8903
дис	-8904
▁Латвии	-8905
плек	-8906
▁технических	-8907
мули	-8908
▁проходят	-8909
▁выжи	-8910
▁вторжения	-8911
▁ресто	-8912
▁головы	-8913
▁Постанов	-8914
▁Иерусали	-8915
▁танков	-8916
зала	-8917
▁настолько	-8918
рских	-8919
▁купи	-8920
ряс	-8921
▁ислам	-8922
▁Худо	-8923
▁учебных	-8924
хин	-8925
▁Борис	-8926
▁просве	-8927
▁Таш	-8928
Петербурга	-8929
▁большинстве	-8930
▁хран	-8931
▁фотографи	-8932
шно	-8933
▁лучший	-8934
▁губернатора	-8935
▁Священ	-8936
вной	-8937
▁Черни	-8938
▁остались	-8939
▁гипоте	-8940
опера	-8941
▁World	-8942
сец	-8943
▁перво	-8944
▁Существует	-8945
фаль	-8946
енса	-8947
▁тера	-8948
▁классов	-8949
▁достоин	-8950
▁мель	-8951
строения	-8952
▁публикации	-8953
▁Доктор	-8954
бургской	-8955
▁интернет	-8956
▁дав	-8957
▁записы	-8958
рип	-8959
▁Семё	-8960
горе	-8961
▁никаких	-8962
тта	-8963
▁гораздо	-8964
▁действительно	-8965
тико	-8966
▁учеников	-8967
▁счет	-8968
▁престол	-8969
люби	-8970
▁отправлен	-8971
рома	-8972
▁целях	-8973
ровку	-8974
▁Бога	-8975
▁Далее	-8976
▁созданы	-8977
▁Беларусь	-8978
▁представлял	-8979
▁Куль	-8980
▁муниципалитета	-8981
щался	-8982
меся	-8983
▁смогла	-8984
./	-8985
▁американская	-8986
▁оказывается	-8987
тропо	-8988
▁утверждён	-8989
ff	-8990
▁соединения	-8991
▁умерла	-8992
▁наличие	-8993
▁Часть	-8994
▁столь	-8995
▁достигну	-8996
▁коммента	-8997
▁памятников	-8998
▁существова	-8999
йора	-9000
мета	-9001
лайн	-9002
▁помощником	-9003
▁румы	-9004
▁площадью	-9005
▁to	-9006
тельством	-9007
▁воссо	-9008
гим	-9009
▁содей	-9010
логом	-9011
▁местные	-9012
▁мер	-9013
▁Тимо	-9014
▁награду	-9015
▁подру	-9016
дик	-9017
▁интеллек	-9018
▁небольшо	-9019
▁помещения	-9020
▁Спустя	-9021
▁Наполе	-9022
▁выстре	-9023
te	-9024
жела	-9025
▁Дебю	-9026
▁восток	-9027
▁Казахстан	-9028
▁Роман	-9029
▁окончила	-9030
юзе	-9031
тового	-9032
▁зара	-9033
▁Ау	-9034
▁Португалии	-9035
▁неприя	-9036
▁Хью	-9037
▁отношение	-9038
▁Pr	-9039
▁мероприятия	-9040
▁враже	-9041
▁диапа	-9042
▁муниципальных	-9043
▁Ma	-9044
▁марок	-9045
▁Иса	-9046
дией	-9047
▁Всесоюз	-9048
ющегося	-9049
▁брен	-9050
▁пласти	-9051
▁Уо	-9052
▁опла	-9053
▁объект	-9054
▁Джейм	-9055
▁индий	-9056
▁прикры	-9057
▁флаг	-9058
▁спаса	-9059
▁Дет	-9060
▁последнее	-9061
▁уд	-9062
револю	-9063
▁необы	-9064
▁Ричард	-9065
▁чеш	-9066
▁факт	-9067
▁служа	-9068
▁Пя	-9069
▁Томас	-9070
лс	-9071
▁Sc	-9072
стный	-9073
вающий	-9074
тус	-9075
тони	-9076
▁сад	-9077
▁прозви	-9078
▁продюсер	-9079
▁ 	-9080
▁чт	-9081
теб	-9082
▁архитектора	-9083
▁вза	-9084
▁плана	-9085
ционном	-9086
▁автомобиль	-9087
▁действует	-9088
▁бассейновому	-9089
щались	-9090
▁фоль	-9091
▁Самар	-9092
двор	-9093
▁учиты	-9094
▁стоимость	-9095
▁мотива	-9096
ющимся	-9097
▁сухо	-9098
тивов	-9099
▁Сбор	-9100
лос	-9101
▁оперы	-9102
▁открыто	-9103
OS	-9104
▁пой	-9105
▁демо	-9106
▁длину	-9107
▁банк	-9108
▁собственной	-9109
ron	-9110
фре	-9111
▁любы	-9112
вляются	-9113
▁Абу	-9114
▁эволю	-9115
ick	-9116
▁Св	-9117
панию	-9118
▁гибели	-9119
▁руководства	-9120
▁властей	-9121
▁приток	-9122
▁Достижения	-9123
́в	-9124
комму	-9125
ить	-9126
▁младший	-9127
▁кот	-9128
жества	-9129
▁издан	-9130
▁восстание	-9131
▁Иоанна	-9132
▁мыш	-9133
▁колхоза	-9134
▁предупре	-9135
ваемых	-9136
▁отдыха	-9137
▁боло	-9138
лэ	-9139
▁мра	-9140
▁очевид	-9141
▁рассмот	-9142
▁несколькими	-9143
лика	-9144
▁типи	-9145
▁Чехослова	-9146
Спарта	-9147
▁базы	-9148
сна	-9149
▁губерния	-9150
▁Образование	-9151
▁описан	-9152
рад	-9153
▁СП	-9154
▁Сти	-9155
стам	-9156
жнее	-9157
▁пище	-9158
▁одинако	-9159
▁ситуация	-9160
▁мяте	-9161
делы	-9162
тинский	-9163
▁операций	-9164
вки	-9165
▁основного	-9166
▁кардина	-9167
▁речной	-9168
▁горно	-9169
▁роста	-9170
евка	-9171
▁построено	-9172
▁Много	-9173
▁посад	-9174
▁Снежный	-9175
▁засе	-9176
▁самостоятельно	-9177
▁установки	-9178
▁фаса	-9179
▁равни	-9180
▁Вторая	-9181
▁правительством	-9182
▁ведущих	-9183
▁Только	-9184
▁завершил	-9185
▁вспо	-9186
▁испытания	-9187
▁уско	-9188
aw	-9189
▁переу	-9190
▁апосто	-9191
▁Сере	-9192
стаи	-9193
▁октябрь	-9194
▁останов	-9195
мате	-9196
▁проводились	-9197
сля	-9198
кович	-9199
▁замка	-9200
▁предусматри	-9201
▁влияния	-9202
▁прихода	-9203
щание	-9204
бат	-9205
▁кали	-9206
рокко	-9207
▁глаз	-9208
▁госпита	-9209
▁хан	-9210
▁утверждал	-9211
In	-9212
▁Франция	-9213
▁Камен	-9214
▁Лондон	-9215
▁Конгре	-9216
▁Луч	-9217
▁связаны	-9218
▁номини	-9219
▁письма	-9220
▁хва	-9221
▁Германия	-9222
▁Московский	-9223
рных	-9224
▁газета	-9225
▁Вид	-9226
▁оккупации	-9227
ллы	-9228
▁состояла	-9229
▁структура	-9230
рованием	-9231
▁приказал	-9232
▁общем	-9233
▁молодой	-9234
АТО	-9235
▁бои	-9236
▁занимается	-9237
▁хвойно	-9238
▁хоккей	-9239
▁объявила	-9240
▁Санта	-9241
▁разделя	-9242
▁гли	-9243
▁весе	-9244
метров	-9245
▁Львов	-9246
ium	-9247
▁похи	-9248
▁Президент	-9249
несён	-9250
Бар	-9251
▁решили	-9252
мога	-9253
per	-9254
бассейн	-9255
▁глуби	-9256
ждается	-9257
▁Обо	-9258
rit	-9259
Ch	-9260
▁методы	-9261
▁Павла	-9262
▁окраи	-9263
▁результатов	-9264
широколиственных	-9265
Ор	-9266
▁мысли	-9267
сим	-9268
▁воспитан	-9269
▁созданию	-9270
пления	-9271
▁Дэвид	-9272
▁рассказыва	-9273
кну	-9274
▁специалистов	-9275
▁Бой	-9276
▁поп	-9277
▁Слова	-9278
▁построены	-9279
▁связанные	-9280
▁приходилось	-9281
▁Людови	-9282
▁консерва	-9283
льзя	-9284
▁Дра	-9285
▁зале	-9286
▁помог	-9287
▁Иоган	-9288
ционер	-9289
▁красо	-9290
▁VIII	-9291
олог	-9292
▁обладает	-9293
уро	-9294
кера	-9295
▁выро	-9296
▁Даге	-9297
▁сериале	-9298
▁фортепи	-9299
▁связана	-9300
▁указывает	-9301
▁находилось	-9302
интере	-9303
▁анализа	-9304
▁Моги	-9305
▁конкурсе	-9306
▁Представи	-9307
нета	-9308
▁дистан	-9309
▁королём	-9310
▁Wind	-9311
▁артист	-9312
▁пространства	-9313
двига	-9314
▁Евгений	-9315
▁Сино	-9316
▁передан	-9317
ченной	-9318
▁приём	-9319
ведением	-9320
▁сражении	-9321
ющему	-9322
▁база	-9323
вах	-9324
полне	-9325
▁коммунисти	-9326
▁провела	-9327
▁Порт	-9328
ведя	-9329
▁грамо	-9330
▁бывшей	-9331
новым	-9332
▁темы	-9333
▁Шан	-9334
▁ведом	-9335
▁самые	-9336
вий	-9337
пок	-9338
▁армей	-9339
▁организовал	-9340
▁хреб	-9341
ванных	-9342
▁Сергея	-9343
▁бокс	-9344
▁Румынии	-9345
льском	-9346
вшему	-9347
▁Вьет	-9348
▁Пау	-9349
▁альбомов	-9350
фикси	-9351
▁боевые	-9352
▁выставки	-9353
▁назначил	-9354
▁осво	-9355
▁высоких	-9356
хими	-9357
▁внед	-9358
▁замену	-9359
▁дивизион	-9360
▁Осенью	-9361
▁испыты	-9362
▁полном	-9363
лева	-9364
▁учитель	-9365
стое	-9366
▁гомо	-9367
лённый	-9368
▁Бори	-9369
▁пев	-9370
▁поход	-9371
▁вещества	-9372
▁Един	-9373
▁опи	-9374
▁атле	-9375
▁гумани	-9376
▁Северная	-9377
▁очер	-9378
▁оказалось	-9379
даль	-9380
▁авиаком	-9381
▁остальных	-9382
▁годами	-9383
▁Критика	-9384
SE	-9385
▁голу	-9386
тники	-9387
“,	-9388
тиков	-9389
▁Кавказ	-9390
▁участка	-9391
▁всеоб	-9392
▁чуть	-9393
▁незакон	-9394
▁мифо	-9395
▁двигателя	-9396
▁Кир	-9397
боров	-9398
▁временно	-9399
▁страну	-9400
дского	-9401
▁пехоты	-9402
▁форм	-9403
сне	-9404
▁Нико	-9405
▁направление	-9406
▁якобы	-9407
▁факультете	-9408
▁схо	-9409
▁гита	-9410
▁морских	-9411
▁схва	-9412
▁баскетбо	-9413
▁делу	-9414
▁нападения	-9415
▁нападающий	-9416
▁съё	-9417
▁серб	-9418
мита	-9419
▁ликвиди	-9420
▁УССР	-9421
▁нашей	-9422
▁греб	-9423
▁разы	-9424
▁учреди	-9425
тическим	-9426
номер	-9427
▁командования	-9428
▁симфо	-9429
▁прошлом	-9430
▁пру	-9431
ждый	-9432
▁хочет	-9433
бургского	-9434
вился	-9435
▁образователь	-9436
▁дивизионе	-9437
зеф	-9438
дце	-9439
щали	-9440
▁австралий	-9441
▁Белоруссии	-9442
▁канал	-9443
▁профи	-9444
зап	-9445
▁Жо	-9446
ертво	-9447
▁критики	-9448
щиеся	-9449
▁условий	-9450
кио	-9451
щаются	-9452
▁инспе	-9453
▁составили	-9454
▁Республике	-9455
зить	-9456
▁компанию	-9457
▁…	-9458
▁обстре	-9459
▁Дени	-9460
▁помочь	-9461
▁Гражданской	-9462
Ком	-9463
▁Балтий	-9464
▁услов	-9465
▁оборони	-9466
▁происхождение	-9467
ват	-9468
▁Тей	-9469
▁очи	-9470
титься	-9471
▁достигает	-9472
чали	-9473
▁вернулась	-9474
▁Оба	-9475
▁структур	-9476
команду	-9477
▁серви	-9478
▁Бельгии	-9479
▁здоровья	-9480
майор	-9481
▁дворец	-9482
▁мощностью	-9483
лита	-9484
▁изображение	-9485
дился	-9486
▁слуша	-9487
▁Рожде	-9488
▁здравоохранения	-9489
▁отмен	-9490
▁Севасто	-9491
▁коллекции	-9492
▁высоты	-9493
▁конфликта	-9494
▁итальянский	-9495
ark	-9496
▁военным	-9497
див	-9498
уда	-9499
цкая	-9500
▁герба	-9501
oft	-9502
▁подполков	-9503
▁британский	-9504
▁физики	-9505
▁стена	-9506
▁научного	-9507
▁сумму	-9508
ейза	-9509
ральные	-9510
евича	-9511
▁швейцар	-9512
▁Норвегии	-9513
▁золото	-9514
мыш	-9515
дала	-9516
▁Але	-9517
▁определения	-9518
▁ребёнка	-9519
▁работников	-9520
▁Происхождение	-9521
▁редакции	-9522
▁приход	-9523
▁интерпре	-9524
▁Система	-9525
▁добра	-9526
▁нефте	-9527
▁Компания	-9528
▁практиче	-9529
▁шу	-9530
ll	-9531
▁новом	-9532
▁нижней	-9533
▁Be	-9534
▁Бря	-9535
ass	-9536
▁лидеров	-9537
▁учёных	-9538
▁горя	-9539
▁часа	-9540
▁кинофести	-9541
▁неактивными	-9542
▁схе	-9543
▁Сибири	-9544
▁примы	-9545
▁британской	-9546
▁длины	-9547
▁осенью	-9548
▁корабли	-9549
▁окрестностях	-9550
▁общим	-9551
▁студийный	-9552
▁излу	-9553
▁обозначения	-9554
▁лёгкой	-9555
▁популярность	-9556
▁расформи	-9557
▁обвинения	-9558
▁железнодорожная	-9559
ёй	-9560
▁коммуни	-9561
▁Македо	-9562
▁договора	-9563
тило	-9564
центри	-9565
ложений	-9566
▁сохранились	-9567
фте	-9568
▁гран	-9569
▁Уол	-9570
▁ресурсов	-9571
▁Несколько	-9572
▁Центр	-9573
▁Вос	-9574
сексу	-9575
ствовало	-9576
▁разработчи	-9577
▁Ранние	-9578
▁главой	-9579
▁материала	-9580
вшееся	-9581
▁подготовке	-9582
▁Ката	-9583
▁Масса	-9584
матики	-9585
стройка	-9586
каго	-9587
▁полной	-9588
▁продуктов	-9589
▁препят	-9590
йбы	-9591
пустил	-9592
▁металлу	-9593
▁ибн	-9594
Анджеле	-9595
▁галакти	-9596
▁Цар	-9597
▁Северного	-9598
▁внимания	-9599
▁Мол	-9600
▁туда	-9601
▁крейсе	-9602
гать	-9603
▁классификации	-9604
▁подъ	-9605
▁повышен	-9606
▁Премьера	-9607
▁посетил	-9608
▁Лес	-9609
▁твёр	-9610
▁оты	-9611
▁Класси	-9612
▁английском	-9613
▁чёт	-9614
▁участвовать	-9615
▁передал	-9616
▁Лео	-9617
▁Вологод	-9618
▁Константин	-9619
лицы	-9620
▁башни	-9621
▁конфликт	-9622
CA	-9623
▁грун	-9624
▁браке	-9625
▁зависит	-9626
▁поставил	-9627
▁изменений	-9628
▁аудито	-9629
▁водой	-9630
▁Нидерландов	-9631
▁Верхне	-9632
Нью	-9633
▁Музей	-9634
▁дворца	-9635
ковском	-9636
▁бака	-9637
▁существенно	-9638
▁существуют	-9639
нести	-9640
▁сезонов	-9641
▁действиях	-9642
▁Бру	-9643
▁скон	-9644
▁фонда	-9645
ыз	-9646
▁источники	-9647
▁различными	-9648
совершен	-9649
▁лекар	-9650
скресен	-9651
▁сингла	-9652
▁одо	-9653
▁фестиваля	-9654
 %),	-9655
▁гвардейской	-9656
les	-9657
жными	-9658
▁правил	-9659
▁немед	-9660
▁физической	-9661
▁реализации	-9662
▁Ex	-9663
▁захорон	-9664
▁блоки	-9665
рета	-9666
▁обществе	-9667
▁поезда	-9668
▁используя	-9669
▁перерабо	-9670
▁небольших	-9671
▁Были	-9672
▁Молда	-9673
▁перевоз	-9674
▁Богороди	-9675
▁Гро	-9676
▁фигур	-9677
▁развитии	-9678
▁ОАО	-9679
▁возвращается	-9680
▁крупный	-9681
▁специалист	-9682
▁считать	-9683
вляя	-9684
▁выставке	-9685
▁рабочего	-9686
▁пассажиров	-9687
▁температуры	-9688
▁принце	-9689
▁лейтенант	-9690
мата	-9691
▁тропи	-9692
▁Встре	-9693
▁НКВД	-9694
Москва	-9695
▁стара	-9696
сила	-9697
класс	-9698
▁докторскую	-9699
▁затра	-9700
▁сохраня	-9701
▁ирланд	-9702
▁столице	-9703
▁уна	-9704
▁содержание	-9705
are	-9706
слом	-9707
▁стадионе	-9708
бля	-9709
▁языком	-9710
ара	-9711
▁двена	-9712
нден	-9713
пур	-9714
▁решает	-9715
▁единиц	-9716
▁похода	-9717
ристокра	-9718
▁егип	-9719
▁резо	-9720
▁самое	-9721
довых	-9722
ial	-9723
▁специ	-9724
▁специализи	-9725
ьями	-9726
▁снят	-9727
▁уволен	-9728
▁устройство	-9729
деся	-9730
АЗ	-9731
▁выступила	-9732
▁Сви	-9733
▁политика	-9734
▁названа	-9735
▁Ты	-9736
▁обеих	-9737
хара	-9738
▁физико	-9739
▁документов	-9740
▁руках	-9741
Боль	-9742
▁армян	-9743
▁US	-9744
▁лагере	-9745
интересо	-9746
▁сельских	-9747
▁Одес	-9748
▁беспла	-9749
▁Украинской	-9750
▁яв	-9751
▁фай	-9752
бон	-9753
▁Публи	-9754
▁личности	-9755
▁средний	-9756
)"	-9757
линской	-9758
▁акций	-9759
▁газа	-9760
Пар	-9761
▁Лев	-9762
▁братья	-9763
▁распада	-9764
▁лагерь	-9765
эля	-9766
▁праздно	-9767
чала	-9768
▁целей	-9769
▁лож	-9770
▁печати	-9771
худ	-9772
▁повторя	-9773
▁возбу	-9774
▁культура	-9775
▁Желез	-9776
▁оправ	-9777
▁международном	-9778
▁Таджи	-9779
▁выращи	-9780
▁Последний	-9781
▁трудно	-9782
▁весной	-9783
▁:	-9784
▁церк	-9785
гора	-9786
теран	-9787
▁Весной	-9788
▁Майкл	-9789
▁звании	-9790
▁Аре	-9791
▁кабине	-9792
▁лаборатории	-9793
ove	-9794
▁Андрея	-9795
▁спортсмен	-9796
▁секретарём	-9797
▁сведениям	-9798
▁родов	-9799
▁Результаты	-9800
▁дать	-9801
зил	-9802
▁борьбу	-9803
▁начать	-9804
орт	-9805
▁Стре	-9806
▁вечер	-9807
▁норве	-9808
▁занятия	-9809
пова	-9810
▁Центрального	-9811
для	-9812
▁аэропорт	-9813
▁Оно	-9814
▁родителей	-9815
кации	-9816
▁повлия	-9817
▁Средне	-9818
▁зафикси	-9819
▁министров	-9820
▁Строительство	-9821
▁экземпляров	-9822
▁последним	-9823
▁лицо	-9824
▁речи	-9825
▁эксплуатацию	-9826
▁активных	-9827
пала	-9828
▁кандидатов	-9829
сыла	-9830
▁границу	-9831
▁глаза	-9832
▁полку	-9833
▁самоуправления	-9834
яз	-9835
▁орденами	-9836
▁поче	-9837
листов	-9838
▁пожар	-9839
▁Ассоциа	-9840
▁привели	-9841
▁молит	-9842
▁Речной	-9843
▁католиче	-9844
▁принимать	-9845
▁лы	-9846
▁ико	-9847
▁продолжает	-9848
нением	-9849
!»	-9850
▁утверждает	-9851
▁Славы	-9852
моно	-9853
▁забро	-9854
▁архитектор	-9855
▁взять	-9856
▁войн	-9857
▁необходимость	-9858
▁Роберта	-9859
▁частных	-9860
плом	-9861
▁границ	-9862
▁методи	-9863
▁секретаря	-9864
▁ведёт	-9865
▁переводе	-9866
▁выигры	-9867
ft	-9868
▁Память	-9869
▁Хей	-9870
▁речь	-9871
▁принимали	-9872
пущен	-9873
▁говорил	-9874
▁известной	-9875
▁сино	-9876
▁банка	-9877
▁Институт	-9878
▁подрост	-9879
▁полузащитник	-9880
▁Алма	-9881
тологи	-9882
▁среде	-9883
корреспо	-9884
▁героев	-9885
▁защиту	-9886
▁покинуть	-9887
кки	-9888
▁перебра	-9889
▁Сло	-9890
вуд	-9891
▁Мать	-9892
летней	-9893
нью	-9894
▁Комитета	-9895
штейн	-9896
▁Парижа	-9897
▁Ему	-9898
▁охваты	-9899
▁прибыли	-9900
бл	-9901
▁бух	-9902
▁небе	-9903
▁закончил	-9904
▁кафедре	-9905
▁алгорит	-9906
▁плохо	-9907
левой	-9908
pe	-9909
▁Украину	-9910
лку	-9911
▁художественный	-9912
▁визу	-9913
▁старей	-9914
▁колонии	-9915
▁музыкальный	-9916
▁безрабо	-9917
▁соглашения	-9918
▁сооружения	-9919
TA	-9920
ландия	-9921
▁машино	-9922
ah	-9923
▁зао	-9924
▁мастера	-9925
▁материал	-9926
▁устраи	-9927
▁Ким	-9928
▁турнирах	-9929
также	-9930
tain	-9931
▁похожи	-9932
гота	-9933
гности	-9934
▁секун	-9935
▁территорий	-9936
корто	-9937
▁министром	-9938
▁Фар	-9939
▁Законом	-9940
ступление	-9941
▁масси	-9942
▁чём	-9943
▁предлагает	-9944
лёв	-9945
▁Международной	-9946
▁создано	-9947
▁гаран	-9948
▁интенсив	-9949
▁Свет	-9950
▁конфлик	-9951
чти	-9952
▁звуко	-9953
▁африкан	-9954
▁Новгород	-9955
шкин	-9956
▁заболевания	-9957
ходу	-9958
▁Георги	-9959
уреа	-9960
▁могло	-9961
▁работах	-9962
▁предшествен	-9963
 %)	-9964
▁третьем	-9965
▁участником	-9966
ith	-9967
зав	-9968
▁политику	-9969
▁вторую	-9970
ксе	-9971
веду	-9972
▁проекти	-9973
дям	-9974
▁главную	-9975
▁покрови	-9976
▁включены	-9977
▁химии	-9978
▁эстафе	-9979
▁Югославии	-9980
▁хво	-9981
ющаяся	-9982
▁приез	-9983
шкой	-9984
▁гет	-9985
чёта	-9986
▁Афгани	-9987
▁автомобиля	-9988
дли	-9989
▁ухода	-9990
▁версию	-9991
▁Мона	-9992
▁любитель	-9993
▁системой	-9994
▁земе	-9995
рены	-9996
ванный	-9997
хла	-9998
▁спортивной	-9999
▁муниципалитет	-10000
▁внешней	-10001
▁вку	-10002
▁коммуника	-10003
степен	-10004
▁княжества	-10005
нит	-10006
▁набрал	-10007
▁реоргани	-10008
▁полковника	-10009
▁подзем	-10010
▁контак	-10011
▁рисо	-10012
▁Бир	-10013
▁годом	-10014
▁членами	-10015
▁сег	-10016
▁продажи	-10017
▁вполне	-10018
▁лав	-10019
▁режим	-10020
мерть	-10021
эф	-10022
▁Ер	-10023
▁Максима	-10024
редко	-10025
▁документы	-10026
нного	-10027
тельностью	-10028
▁признание	-10029
▁Изда	-10030
▁непро	-10031
зависи	-10032
▁Windows	-10033
▁анима	-10034
▁творчество	-10035
▁задач	-10036
▁Свято	-10037
▁выбира	-10038
▁Юнайтед	-10039
шоу	-10040
▁бель	-10041
ier	-10042
писей	-10043
▁Ца	-10044
тологии	-10045
▁фильмы	-10046
▁Николаевич	-10047
▁Мель	-10048
▁Африке	-10049
▁Устье	-10050
▁черты	-10051
▁Лен	-10052
▁Здание	-10053
бери	-10054
▁политике	-10055
▁тракта	-10056
вичем	-10057
▁питания	-10058
▁цир	-10059
ровке	-10060
ртах	-10061
▁процессо	-10062
▁жар	-10063
▁прорабо	-10064
чья	-10065
▁точно	-10066
▁равен	-10067
▁Group	-10068
тикаль	-10069
▁Рома	-10070
▁св	-10071
▁грузи	-10072
прочем	-10073
▁Волго	-10074
▁премьера	-10075
▁выйдя	-10076
▁психологи	-10077
тику	-10078
▁хар	-10079
▁фестивале	-10080
▁хода	-10081
▁регион	-10082
▁управлением	-10083
▁обнаружены	-10084
лежа	-10085
▁слия	-10086
▁потерял	-10087
гс	-10088
ьми	-10089
▁домини	-10090
▁намест	-10091
▁Международного	-10092
ванге	-10093
▁Проект	-10094
▁писто	-10095
▁Сама	-10096
кара	-10097
▁делать	-10098
▁Годовое	-10099
тическую	-10100
▁сообщает	-10101
▁невы	-10102
спор	-10103
.»	-10104
бей	-10105
▁Хэ	-10106
ленда	-10107
▁Псковской	-10108
▁меры	-10109
▁Татья	-10110
▁корре	-10111
²,	-10112
щания	-10113
сбор	-10114
▁залива	-10115
▁Иногда	-10116
▁Над	-10117
▁политик	-10118
▁получило	-10119
юар	-10120
▁произведение	-10121
▁Демография	-10122
▁процеду	-10123
▁наблюдения	-10124
▁вмеша	-10125
▁платфор	-10126
▁появления	-10127
▁Me	-10128
▁конта	-10129
▁Александрович	-10130
▁трибу	-10131
▁продолжительной	-10132
▁обстанов	-10133
ир	-10134
рованная	-10135
▁бывших	-10136
pp	-10137
▁Гви	-10138
▁художественной	-10139
мский	-10140
тово	-10141
▁Берлин	-10142
▁Башкорто	-10143
▁прошед	-10144
▁деревню	-10145
▁значительной	-10146
▁Мастер	-10147
ors	-10148
▁консерватории	-10149
▁живёт	-10150
▁познакомился	-10151
▁Сид	-10152
▁Руси	-10153
▁откло	-10154
▁аристокра	-10155
жнему	-10156
▁тяжело	-10157
▁порядок	-10158
родю	-10159
▁одоб	-10160
▁сосу	-10161
▁крым	-10162
▁коричне	-10163
▁реестре	-10164
▁рэ	-10165
▁зуб	-10166
▁попол	-10167
▁вооружённых	-10168
▁непрерыв	-10169
▁штра	-10170
▁текста	-10171
▁Гол	-10172
▁общине	-10173
▁провел	-10174
▁рынке	-10175
▁фаши	-10176
▁Патри	-10177
Ду	-10178
сполни	-10179
влялся	-10180
▁любовь	-10181
▁указом	-10182
▁методов	-10183
цком	-10184
ons	-10185
▁использоваться	-10186
джо	-10187
▁Франк	-10188
▁распространения	-10189
▁фотографии	-10190
▁ланд	-10191
▁литов	-10192
ваш	-10193
еной	-10194
От	-10195
▁линию	-10196
▁Основной	-10197
чжоу	-10198
▁Почёт	-10199
▁заинтересо	-10200
▁филиа	-10201
▁приглашён	-10202
▁эвакуи	-10203
▁Округ	-10204
▁деление	-10205
сило	-10206
▁эффект	-10207
▁Тере	-10208
▁плотность	-10209
▁тюр	-10210
вален	-10211
▁семью	-10212
лёк	-10213
▁перешли	-10214
роде	-10215
линского	-10216
▁идей	-10217
▁Специаль	-10218
ганской	-10219
▁убийство	-10220
чались	-10221
▁привод	-10222
▁проводится	-10223
▁Российская	-10224
▁Бат	-10225
▁заслуженный	-10226
▁городу	-10227
▁Георгия	-10228
▁футбольный	-10229
▁теря	-10230
▁озву	-10231
▁Ура	-10232
▁исследование	-10233
струи	-10234
лор	-10235
ровую	-10236
нувшись	-10237
без	-10238
▁корпора	-10239
▁океана	-10240
▁молодёжи	-10241
числи	-10242
▁IX	-10243
енача	-10244
▁веру	-10245
▁Брон	-10246
▁аренду	-10247
▁съезда	-10248
▁классе	-10249
ult	-10250
▁справед	-10251
тена	-10252
▁пребывания	-10253
▁отсутствует	-10254
гром	-10255
▁проник	-10256
муля	-10257
терью	-10258
жеб	-10259
▁Принима	-10260
коро	-10261
▁XXI	-10262
▁пейза	-10263
▁Матери	-10264
▁Израиль	-10265
▁способности	-10266
▁данном	-10267
▁шириной	-10268
музы	-10269
▁Имеет	-10270
▁собственные	-10271
▁жанре	-10272
▁He	-10273
вающей	-10274
▁борту	-10275
▁характера	-10276
▁крат	-10277
пал	-10278
▁Закон	-10279
ппе	-10280
▁посредством	-10281
▁преобразован	-10282
евском	-10283
▁Хен	-10284
▁Творчество	-10285
▁характеристи	-10286
▁жел	-10287
сар	-10288
зовый	-10289
▁учителем	-10290
ристов	-10291
▁квалификации	-10292
ox	-10293
сное	-10294
▁Постоян	-10295
▁Ага	-10296
▁идея	-10297
▁известная	-10298
кия	-10299
ид	-10300
▁экспози	-10301
▁производству	-10302
несен	-10303
▁алкого	-10304
▁Яку	-10305
▁Саха	-10306
▁оско	-10307
▁полный	-10308
▁аренды	-10309
▁драматур	-10310
▁успехом	-10311
Ту	-10312
▁размере	-10313
▁среднюю	-10314
менной	-10315
ari	-10316
▁телевидения	-10317
ване	-10318
▁Диа	-10319
▁Воспи	-10320
▁исторической	-10321
▁Уэль	-10322
ффа	-10323
▁трое	-10324
▁друзей	-10325
▁Михайлович	-10326
▁требует	-10327
талья	-10328
▁отправил	-10329
точной	-10330
▁Питер	-10331
▁фолькло	-10332
ict	-10333
▁следующего	-10334
TV	-10335
▁носит	-10336
ису	-10337
▁задержа	-10338
▁музыкального	-10339
▁тенден	-10340
▁некоторым	-10341
▁напротив	-10342
▁небольшие	-10343
▁социально	-10344
▁эксплуатации	-10345
ign	-10346
▁Игорь	-10347
▁имено	-10348
краин	-10349
▁МВД	-10350
▁невозможно	-10351
▁приказу	-10352
▁взрослых	-10353
▁заложен	-10354
▁великого	-10355
▁являлись	-10356
мино	-10357
ксикан	-10358
ank	-10359
▁Университета	-10360
вавших	-10361
пет	-10362
▁пожертво	-10363
▁социали	-10364
▁Лауреат	-10365
▁культурного	-10366
▁Сту	-10367
▁фамилии	-10368
лил	-10369
▁коллектива	-10370
территориального	-10371
▁коллектив	-10372
An	-10373
▁окружающей	-10374
▁Пор	-10375
▁заповед	-10376
нокоманду	-10377
▁век	-10378
вляли	-10379
▁Каждый	-10380
▁Нео	-10381
▁гола	-10382
▁опро	-10383
inc	-10384
▁ООО	-10385
ёрт	-10386
▁останови	-10387
▁монастыре	-10388
▁экономической	-10389
▁женской	-10390
▁моде	-10391
▁занималась	-10392
▁знако	-10393
▁финиши	-10394
жба	-10395
▁Бах	-10396
▁никто	-10397
▁посвящен	-10398
▁исполнении	-10399
▁долгое	-10400
▁соблю	-10401
▁возвышенности	-10402
▁Соло	-10403
▁защите	-10404
▁перехода	-10405
морозный	-10406
▁СС	-10407
▁Саль	-10408
▁рынка	-10409
▁увиде	-10410
▁сочинения	-10411
▁сфер	-10412
▁организацию	-10413
▁перес	-10414
▁процессов	-10415
▁отече	-10416
Ге	-10417
фин	-10418
▁туре	-10419
▁сопротивление	-10420
▁Сю	-10421
▁отсутствия	-10422
▁типов	-10423
▁путей	-10424
▁масса	-10425
маш	-10426
▁осла	-10427
миль	-10428
льному	-10429
▁канале	-10430
́т	-10431
ern	-10432
▁общин	-10433
▁Знамени	-10434
▁отделом	-10435
▁Цвет	-10436
▁теку	-10437
▁Полта	-10438
▁воспринима	-10439
шали	-10440
▁ход	-10441
▁оценку	-10442
▁святой	-10443
▁византий	-10444
▁сты	-10445
▁научным	-10446
вавший	-10447
▁судей	-10448
▁международный	-10449
ics	-10450
▁опти	-10451
▁нельзя	-10452
гне	-10453
▁немцев	-10454
▁послевоен	-10455
▁разгро	-10456
▁Васильевич	-10457
▁Безморозный	-10458
▁соборе	-10459
ma	-10460
▁диску	-10461
com	-10462
▁атом	-10463
▁военача	-10464
▁признал	-10465
▁бронзовую	-10466
▁медицинских	-10467
▁распа	-10468
▁цель	-10469
▁подготовку	-10470
рием	-10471
▁дальше	-10472
▁Канаде	-10473
▁объекты	-10474
▁игровой	-10475
▁вопло	-10476
ргыз	-10477
▁уме	-10478
влены	-10479
говора	-10480
▁Сербии	-10481
▁дочерью	-10482
дая	-10483
▁пон	-10484
age	-10485
▁Cl	-10486
▁гиган	-10487
▁незначи	-10488
▁внутренней	-10489
▁строя	-10490
ЕФА	-10491
▁Уор	-10492
▁виду	-10493
ванные	-10494
▁рассказ	-10495
▁Есть	-10496
▁Главного	-10497
▁работают	-10498
▁Бес	-10499
▁Кле	-10500
▁вернуть	-10501
▁генерального	-10502
▁образует	-10503
▁Рио	-10504
unt	-10505
▁жителя	-10506
зиа	-10507
▁Костром	-10508
ранже	-10509
▁сержант	-10510
▁подбассейн	-10511
водится	-10512
▁областей	-10513
рые	-10514
▁отмечал	-10515
▁водном	-10516
▁певица	-10517
▁народной	-10518
▁реконструкции	-10519
шне	-10520
▁блок	-10521
▁педагог	-10522
▁Возможно	-10523
▁огра	-10524
▁характеристики	-10525
пия	-10526
▁Францию	-10527
▁населением	-10528
мас	-10529
мович	-10530
▁другое	-10531
▁осталась	-10532
ниями	-10533
ссон	-10534
▁наших	-10535
▁родители	-10536
лять	-10537
▁аэропорта	-10538
▁Ленинградской	-10539
лат	-10540
▁Доро	-10541
руса	-10542
мотреть	-10543
▁разрушен	-10544
▁лест	-10545
прежнему	-10546
грамма	-10547
▁показывает	-10548
▁собран	-10549
мп	-10550
зина	-10551
▁Ада	-10552
▁рекор	-10553
▁следова	-10554
▁Te	-10555
▁фунтов	-10556
▁сп	-10557
тетом	-10558
УУ	-10559
▁оркестра	-10560
▁раунда	-10561
реза	-10562
▁Екатерин	-10563
▁Николь	-10564
лиге	-10565
▁свадь	-10566
▁нередко	-10567
▁Ссылки	-10568
▁Университете	-10569
▁королевства	-10570
▁Перу	-10571
▁проспе	-10572
▁станет	-10573
▁принимала	-10574
yn	-10575
▁Василия	-10576
▁фонд	-10577
▁субъек	-10578
▁Христо	-10579
▁славя	-10580
▁проводит	-10581
▁древе	-10582
▁прися	-10583
▁остатки	-10584
▁преследо	-10585
▁закрепи	-10586
альная	-10587
▁смысле	-10588
▁эскад	-10589
▁свободу	-10590
▁Алексея	-10591
честер	-10592
▁увидеть	-10593
▁Калифорния	-10594
▁выражен	-10595
▁открытие	-10596
▁проживал	-10597
▁Фина	-10598
▁диф	-10599
туда	-10600
▁детства	-10601
▁Христа	-10602
▁Трудо	-10603
▁теория	-10604
фио	-10605
▁голову	-10606
▁вооружение	-10607
▁хле	-10608
▁вызвало	-10609
щийся	-10610
▁пожало	-10611
▁магазин	-10612
регу	-10613
▁детстве	-10614
ката	-10615
▁Теха	-10616
▁масштаб	-10617
▁зави	-10618
▁Нижне	-10619
Из	-10620
▁разнови	-10621
▁активное	-10622
рической	-10623
▁уезде	-10624
ундтре	-10625
стор	-10626
▁цикла	-10627
перёд	-10628
▁Благо	-10629
olog	-10630
▁изобрет	-10631
act	-10632
▁Бран	-10633
▁Джен	-10634
▁волость	-10635
▁контек	-10636
▁собственности	-10637
▁кустар	-10638
▁родину	-10639
▁УЕФА	-10640
рийский	-10641
▁Республика	-10642
▁Play	-10643
губерна	-10644
▁колоколь	-10645
▁Генриха	-10646
▁древних	-10647
▁психиат	-10648
▁закреп	-10649
▁надо	-10650
▁Демокра	-10651
▁Ама	-10652
ory	-10653
▁включена	-10654
▁рит	-10655
ённые	-10656
▁Марти	-10657
▁Hot	-10658
▁миссии	-10659
▁первенства	-10660
▁Кня	-10661
▁парамет	-10662
▁товарище	-10663
▁находит	-10664
▁нарушения	-10665
▁описал	-10666
лией	-10667
▁важным	-10668
▁губернатор	-10669
ллу	-10670
рабан	-10671
▁исполнения	-10672
жиссёр	-10673
▁страхо	-10674
Гу	-10675
▁фирмы	-10676
▁Красную	-10677
▁заплани	-10678
ниме	-10679
чт	-10680
кент	-10681
▁Уильяма	-10682
▁правление	-10683
ai	-10684
гард	-10685
ществи	-10686
▁Оре	-10687
чному	-10688
▁называет	-10689
▁старин	-10690
▁высокие	-10691
▁общее	-10692
▁партиза	-10693
▁энциклопе	-10694
ловка	-10695
▁трансли	-10696
▁заим	-10697
сени	-10698
▁религии	-10699
▁Дви	-10700
городе	-10701
бить	-10702
▁сменил	-10703
АТУУ	-10704
жском	-10705
▁КОАТУУ	-10706
▁покупа	-10707
туро	-10708
таря	-10709
▁допуска	-10710
▁выле	-10711
▁третьим	-10712
склю	-10713
президен	-10714
any	-10715
▁славы	-10716
▁Ленинграде	-10717
суа	-10718
▁персонаж	-10719
ъю	-10720
▁женского	-10721
▁мощность	-10722
▁Эри	-10723
▁алфа	-10724
льская	-10725
цова	-10726
▁деления	-10727
Бер	-10728
▁итого	-10729
нимом	-10730
▁Московском	-10731
▁Intern	-10732
▁распространя	-10733
▁Re	-10734
▁Основная	-10735
▁соединение	-10736
▁Бос	-10737
▁говорят	-10738
▁АО	-10739
ходило	-10740
▁органы	-10741
▁прио	-10742
▁Чили	-10743
пах	-10744
▁пришли	-10745
▁приходит	-10746
▁цилинд	-10747
▁историко	-10748
▁вода	-10749
▁уступив	-10750
зелё	-10751
▁вспы	-10752
▁Научная	-10753
▁матерью	-10754
▁веществ	-10755
▁осталось	-10756
▁лидером	-10757
▁провели	-10758
▁Стивен	-10759
▁обнаружен	-10760
▁реакции	-10761
тю	-10762
ваи	-10763
▁подпо	-10764
orn	-10765
▁Ля	-10766
▁императри	-10767
▁мемориаль	-10768
▁количестве	-10769
▁линг	-10770
▁отборо	-10771
▁бакалав	-10772
▁считали	-10773
▁поклон	-10774
▁Меди	-10775
▁мелких	-10776
нила	-10777
▁горе	-10778
▁пого	-10779
▁трудоспособ	-10780
▁Вей	-10781
▁двигатель	-10782
▁британского	-10783
▁поверхность	-10784
▁Таи	-10785
жев	-10786
▁уделя	-10787
▁установлено	-10788
▁НБА	-10789
▁Журна	-10790
▁добился	-10791
▁разряде	-10792
▁обуслов	-10793
кау	-10794
глу	-10795
▁Токио	-10796
▁совсем	-10797
▁храме	-10798
▁духовной	-10799
лагается	-10800
▁(№	-10801
▁поэзии	-10802
▁Чернигов	-10803
▁выполнение	-10804
▁юниор	-10805
веков	-10806
▁рецеп	-10807
▁Институте	-10808
держан	-10809
▁продоволь	-10810
ринг	-10811
▁беге	-10812
▁тут	-10813
нулись	-10814
▁Ураль	-10815
▁показали	-10816
▁переданы	-10817
хамма	-10818
▁топлива	-10819
▁написана	-10820
ремя	-10821
таки	-10822
▁Андер	-10823
▁санк	-10824
▁проде	-10825
готавли	-10826
▁играла	-10827
▁солн	-10828
"»,	-10829
▁Stud	-10830
кновен	-10831
сл	-10832
▁провинцию	-10833
▁Поло	-10834
▁кинотеат	-10835
▁писать	-10836
▁Константи	-10837
▁потенциаль	-10838
▁истин	-10839
▁девять	-10840
ous	-10841
▁Усть	-10842
▁курса	-10843
▁благода	-10844
▁протестан	-10845
▁пространство	-10846
▁восстановления	-10847
▁Энд	-10848
▁крайней	-10849
юрод	-10850
▁господ	-10851
▁Востока	-10852
Пре	-10853
▁частях	-10854
▁математи	-10855
▁копий	-10856
▁Сначала	-10857
▁Дебютировал	-10858
рено	-10859
ain	-10860
▁Витеб	-10861
▁Стэн	-10862
▁Начало	-10863
▁боепри	-10864
▁Силь	-10865
▁правила	-10866
вклю	-10867
ПУ	-10868
▁Средизем	-10869
▁футбола	-10870
▁Зеландии	-10871
▁Елена	-10872
▁Бара	-10873
▁обеспечить	-10874
▁освобождён	-10875
▁ракеты	-10876
▁вырос	-10877
▁напеча	-10878
inae	-10879
▁обратился	-10880
▁серебряную	-10881
▁раунд	-10882
тыш	-10883
▁созвез	-10884
жбы	-10885
▁пенсию	-10886
▁Ленинградского	-10887
жник	-10888
▁платформы	-10889
кавказ	-10890
▁Госпо	-10891
▁вручением	-10892
▁Сов	-10893
питы	-10894
▁подсемей	-10895
▁Посёлок	-10896
▁Кем	-10897
▁шан	-10898
▁отдел	-10899
ральном	-10900
▁решено	-10901
▁Дея	-10902
▁Университет	-10903
▁Покров	-10904
▁ширина	-10905
▁сынов	-10906
шают	-10907
▁Писа	-10908
зеро	-10909
▁экза	-10910
▁актри	-10911
▁Оли	-10912
▁избежать	-10913
▁Чет	-10914
Гор	-10915
▁прину	-10916
▁возвращении	-10917
▁развер	-10918
ann	-10919
▁царь	-10920
сполко	-10921
щалось	-10922
▁Смит	-10923
▁высоту	-10924
▁Солнца	-10925
ключения	-10926
▁Бала	-10927
▁орган	-10928
▁сохранить	-10929
▁композиций	-10930
▁берег	-10931
▁проводил	-10932
▁определяется	-10933
▁лагеря	-10934
▁преодоле	-10935
пев	-10936
ношение	-10937
▁экологи	-10938
▁бежен	-10939
▁парке	-10940
▁добиться	-10941
культур	-10942
ala	-10943
▁Кал	-10944
▁ухуд	-10945
нено	-10946
соном	-10947
▁).	-10948
▁мексикан	-10949
▁концерт	-10950
uc	-10951
ллей	-10952
▁нефти	-10953
▁плоско	-10954
▁Awards	-10955
океан	-10956
▁собственных	-10957
▁Буда	-10958
▁медицины	-10959
▁огня	-10960
▁очка	-10961
▁промежу	-10962
▁Мадри	-10963
▁Александров	-10964
▁Производство	-10965
▁Met	-10966
чко	-10967
▁Феодо	-10968
▁людям	-10969
▁практике	-10970
▁многом	-10971
▁политического	-10972
▁установил	-10973
▁району	-10974
▁Чан	-10975
▁вход	-10976
▁уехал	-10977
▁Божи	-10978
▁запол	-10979
▁бюджет	-10980
▁пале	-10981
тис	-10982
▁экономического	-10983
▁размера	-10984
▁эстафете	-10985
▁французских	-10986
▁Кло	-10987
▁соединя	-10988
XV	-10989
жье	-10990
емую	-10991
▁волей	-10992
▁гендер	-10993
▁Ману	-10994
▁российская	-10995
ux	-10996
воды	-10997
▁заря	-10998
Фа	-10999
▁Высота	-11000
▁антропо	-11001
мали	-11002
▁Мартин	-11003
▁островах	-11004
▁ПВО	-11005
▁серде	-11006
▁исполнение	-11007
▁пояс	-11008
евой	-11009
▁нефтя	-11010
▁служит	-11011
▁взрыв	-11012
▁Лав	-11013
▁Элиза	-11014
лизм	-11015
▁черно	-11016
гена	-11017
▁научные	-11018
▁епископом	-11019
ien	-11020
▁Музе	-11021
ail	-11022
фун	-11023
ram	-11024
проек	-11025
▁военное	-11026
▁планы	-11027
▁растение	-11028
▁оборудование	-11029
петров	-11030
▁вызывает	-11031
▁наименование	-11032
▁прокуро	-11033
▁слы	-11034
pt	-11035
▁Гам	-11036
▁Цин	-11037
▁резерв	-11038
▁южнее	-11039
▁спасти	-11040
кской	-11041
▁вертикаль	-11042
фта	-11043
ловых	-11044
▁Астра	-11045
ндент	-11046
ровер	-11047
▁Террито	-11048
▁Леон	-11049
▁ежеднев	-11050
▁Крымской	-11051
▁Продолжи	-11052
▁Тара	-11053
бита	-11054
▁сериал	-11055
▁Ильи	-11056
вита	-11057
▁гуманитар	-11058
▁погибших	-11059
дыватель	-11060
▁проводятся	-11061
ловек	-11062
▁анализ	-11063
▁Шер	-11064
▁Пана	-11065
▁Физи	-11066
▁исторического	-11067
▁Кот	-11068
▁разведки	-11069
▁регионов	-11070
министр	-11071
▁севера	-11072
нс	-11073
▁Сити	-11074
▁ряды	-11075
▁числу	-11076
▁персид	-11077
▁отношениях	-11078
Кор	-11079
▁балла	-11080
ченного	-11081
▁травмы	-11082
ьёй	-11083
▁комсомо	-11084
▁Пин	-11085
▁проявлен	-11086
▁We	-11087
▁заведения	-11088
▁наступления	-11089
где	-11090
co	-11091
эффици	-11092
▁вступа	-11093
▁экономических	-11094
льности	-11095
▁набор	-11096
змов	-11097
▁вот	-11098
▁специальных	-11099
▁Министерство	-11100
▁Спа	-11101
Чи	-11102
▁«»,	-11103
стерои	-11104
▁произошёл	-11105
хим	-11106
▁глоба	-11107
зель	-11108
▁общественный	-11109
▁услуг	-11110
▁поса	-11111
own	-11112
▁издал	-11113
▁поддержа	-11114
мовой	-11115
▁разво	-11116
▁дета	-11117
▁режиме	-11118
жке	-11119
новской	-11120
▁советское	-11121
▁ходу	-11122
▁выступили	-11123
▁Гит	-11124
санд	-11125
ленным	-11126
рене	-11127
▁универса	-11128
▁Вай	-11129
▁Улья	-11130
▁префек	-11131
▁будущем	-11132
▁переста	-11133
ала	-11134
▁лидера	-11135
▁исследователи	-11136
золо	-11137
▁бег	-11138
Гер	-11139
▁крестьянской	-11140
▁учёбы	-11141
▁инфраструк	-11142
▁Сау	-11143
нерус	-11144
▁сельской	-11145
▁лекции	-11146
▁мужского	-11147
▁мозга	-11148
тельству	-11149
Север	-11150
▁множества	-11151
▁обыгра	-11152
▁деревьев	-11153
▁появилось	-11154
lin	-11155
жили	-11156
▁полуострова	-11157
▁Фёдоро	-11158
▁воспроиз	-11159
вяз	-11160
▁напи	-11161
▁учреждений	-11162
строена	-11163
▁образе	-11164
джу	-11165
зованы	-11166
▁эс	-11167
мертно	-11168
▁CO	-11169
носит	-11170
▁Южно	-11171
▁Генрих	-11172
▁становятся	-11173
▁Плотность	-11174
▁послан	-11175
Ал	-11176
▁боле	-11177
мили	-11178
▁белых	-11179
out	-11180
▁Монте	-11181
▁назем	-11182
▁Патриар	-11183
▁Браун	-11184
▁кресто	-11185
▁Считается	-11186
вара	-11187
▁погло	-11188
▁областях	-11189
▁бак	-11190
▁массы	-11191
▁Сек	-11192
▁пен	-11193
▁зачёте	-11194
нях	-11195
▁объединение	-11196
▁организацией	-11197
▁стер	-11198
▁принятия	-11199
дев	-11200
суда	-11201
▁установить	-11202
▁чарте	-11203
фар	-11204
▁Остров	-11205
летию	-11206
land	-11207
▁автономного	-11208
▁сх	-11209
▁способность	-11210
▁гипер	-11211
▁важную	-11212
▁проекты	-11213
дная	-11214
▁содержания	-11215
мми	-11216
▁предложения	-11217
▁ски	-11218
▁заявила	-11219
▁золотую	-11220
▁художником	-11221
▁убить	-11222
▁подчер	-11223
фур	-11224
▁чему	-11225
альным	-11226
▁рос	-11227
▁сопротивления	-11228
бби	-11229
фессо	-11230
▁хутор	-11231
▁Общества	-11232
▁официальных	-11233
зино	-11234
▁чемпионатах	-11235
▁силой	-11236
чук	-11237
▁обез	-11238
▁учены	-11239
▁зача	-11240
▁la	-11241
СКА	-11242
▁Грин	-11243
▁внезап	-11244
▁Фридрих	-11245
▁пройти	-11246
▁выса	-11247
▁племени	-11248
▁k	-11249
▁Фут	-11250
▁высшее	-11251
▁казни	-11252
▁патри	-11253
▁for	-11254
▁подчёр	-11255
тено	-11256
▁предстоя	-11257
▁клубы	-11258
▁Октябрьской	-11259
▁каждые	-11260
шё	-11261
▁Enter	-11262
▁релье	-11263
▁фин	-11264
▁e	-11265
▁монархи	-11266
▁придержи	-11267
рита	-11268
мышлен	-11269
▁музыке	-11270
▁попала	-11271
▁попере	-11272
▁собственную	-11273
▁песча	-11274
▁количеству	-11275
▁предпочита	-11276
▁флан	-11277
▁перевода	-11278
▁каждая	-11279
▁областной	-11280
▁нака	-11281
▁авторы	-11282
▁мужчина	-11283
изм	-11284
▁Сток	-11285
▁осуществи	-11286
▁крест	-11287
▁образований	-11288
вань	-11289
▁упро	-11290
СП	-11291
▁аван	-11292
▁вулка	-11293
;/	-11294
▁Стюар	-11295
ube	-11296
▁ночью	-11297
▁семьёй	-11298
▁боеприпа	-11299
▁исполнял	-11300
▁прочих	-11301
ance	-11302
▁сайта	-11303
▁Известно	-11304
коп	-11305
▁турниров	-11306
▁трой	-11307
▁боёв	-11308
▁служба	-11309
▁основателей	-11310
▁певицы	-11311
чностью	-11312
▁Ближайшие	-11313
▁картину	-11314
▁гармо	-11315
▁изменя	-11316
▁Каль	-11317
sk	-11318
стил	-11319
▁пля	-11320
▁долине	-11321
змы	-11322
▁пау	-11323
▁пари	-11324
▁Клю	-11325
рида	-11326
▁романе	-11327
▁начинают	-11328
пами	-11329
▁горных	-11330
▁лингви	-11331
▁настав	-11332
▁видом	-11333
▁Муниципа	-11334
▁замы	-11335
▁лауреа	-11336
▁Яр	-11337
▁«».	-11338
видимому	-11339
ллера	-11340
ничества	-11341
▁приобрёл	-11342
клу	-11343
▁Литвы	-11344
рино	-11345
▁глад	-11346
кский	-11347
▁каби	-11348
mer	-11349
▁зени	-11350
▁( —	-11351
▁води	-11352
▁последующих	-11353
▁Адам	-11354
▁эпизод	-11355
▁исполнитель	-11356
▁Go	-11357
▁Иису	-11358
▁функций	-11359
▁Южного	-11360
▁рейтинге	-11361
мора	-11362
▁мону	-11363
▁огнём	-11364
риал	-11365
▁тёмно	-11366
тальной	-11367
▁подозре	-11368
▁расстояние	-11369
▁медицинской	-11370
▁Паки	-11371
▁облож	-11372
вокуп	-11373
▁крупным	-11374
▁юнио	-11375
▁Сирии	-11376
▁собственный	-11377
▁корона	-11378
▁сторонников	-11379
▁выступление	-11380
ound	-11381
▁геомет	-11382
▁Выбор	-11383
▁источником	-11384
▁придвор	-11385
▁белые	-11386
▁достигла	-11387
▁интересов	-11388
▁официальной	-11389
▁самая	-11390
▁столетия	-11391
▁дель	-11392
▁кристал	-11393
▁числилось	-11394
▁сбе	-11395
▁Вест	-11396
▁Гарри	-11397
▁появляются	-11398
ации	-11399
лённых	-11400
местно	-11401
ite	-11402
▁имми	-11403
▁Чехии	-11404
▁Ставро	-11405
▁Азербайджанской	-11406
▁Ph	-11407
▁Работа	-11408
▁выполнения	-11409
йтинг	-11410
ксов	-11411
гвар	-11412
▁задача	-11413
▁вынуждены	-11414
▁описывает	-11415
▁реме	-11416
▁отсутствуют	-11417
ничество	-11418
▁высокий	-11419
▁принца	-11420
▁специализирован	-11421
▁фильму	-11422
▁чисто	-11423
▁Воро	-11424
▁основатель	-11425
▁имея	-11426
тическом	-11427
▁Музыкаль	-11428
▁Государственный	-11429
▁Обычно	-11430
▁значительное	-11431
вете	-11432
▁выступали	-11433
льев	-11434
эро	-11435
▁введён	-11436
▁Рен	-11437
▁одежды	-11438
▁похорон	-11439
вь	-11440
▁фана	-11441
▁федера	-11442
▁заключается	-11443
▁корреспо	-11444
▁рыбо	-11445
видные	-11446
▁стрем	-11447
▁Международный	-11448
▁кого	-11449
▁играли	-11450
▁советские	-11451
▁приписы	-11452
▁политические	-11453
▁CD	-11454
Вели	-11455
▁заба	-11456
▁гонки	-11457
ИД	-11458
▁общий	-11459
▁полёта	-11460
кета	-11461
▁пьесы	-11462
▁фак	-11463
стыми	-11464
▁Оси	-11465
▁побы	-11466
▁восполь	-11467
▁округов	-11468
лянд	-11469
▁Курской	-11470
▁ветви	-11471
▁Яко	-11472
▁Департамент	-11473
▁башки	-11474
▁колледже	-11475
здо	-11476
▁винов	-11477
ivers	-11478
▁Кыргыз	-11479
▁сказ	-11480
▁Таври	-11481
▁рынок	-11482
▁польский	-11483
▁вывод	-11484
ида	-11485
▁Индоне	-11486
цвета	-11487
монстри	-11488
▁основано	-11489
▁Орден	-11490
▁сотни	-11491
▁примеру	-11492
извест	-11493
́нд	-11494
▁собрал	-11495
▁СН	-11496
▁Россией	-11497
▁возобнов	-11498
бани	-11499
зади	-11500
▁Mic	-11501
▁собственного	-11502
кине	-11503
▁),	-11504
▁падения	-11505
▁шпи	-11506
▁живопи	-11507
▁ископа	-11508
▁программи	-11509
▁Мало	-11510
▁Кун	-11511
ложением	-11512
▁лауреат	-11513
▁обстоятельства	-11514
▁реализо	-11515
▁формирование	-11516
▁каждо	-11517
▁городском	-11518
▁шла	-11519
▁отличием	-11520
▁телевидении	-11521
▁ноги	-11522
тайской	-11523
▁архиепископ	-11524
льность	-11525
▁изданий	-11526
меха	-11527
▁проводить	-11528
нель	-11529
▁клеток	-11530
▁Йор	-11531
▁удержи	-11532
глав	-11533
▁применяется	-11534
тками	-11535
▁сценарий	-11536
▁занимались	-11537
рованным	-11538
▁Новгородской	-11539
orp	-11540
▁Спор	-11541
▁нема	-11542
тегория	-11543
рили	-11544
ённый	-11545
РГ	-11546
ini	-11547
▁потреби	-11548
▁давления	-11549
▁руководителя	-11550
▁всём	-11551
образи	-11552
▁Италия	-11553
▁Глу	-11554
носится	-11555
▁строго	-11556
▁проходила	-11557
▁служить	-11558
▁властями	-11559
▁Нижегородской	-11560
стки	-11561
▁проживает	-11562
XI	-11563
▁рег	-11564
тируется	-11565
▁встрече	-11566
▁дебютный	-11567
▁медалей	-11568
ys	-11569
стона	-11570
▁Флорен	-11571
▁старых	-11572
▁решению	-11573
альное	-11574
▁линий	-11575
▁Получил	-11576
ода	-11577
▁каких	-11578
▁миллиар	-11579
▁недавно	-11580
дерланд	-11581
динг	-11582
тизма	-11583
Пра	-11584
▁Высшей	-11585
▁дали	-11586
▁национальную	-11587
▁преподавателем	-11588
▁обсужда	-11589
▁построил	-11590
изнь	-11591
▁сож	-11592
▁слобо	-11593
▁производстве	-11594
▁Le	-11595
жене	-11596
ction	-11597
▁патриарха	-11598
боре	-11599
▁керами	-11600
▁бомбардиров	-11601
бс	-11602
чув	-11603
▁концепции	-11604
▁положении	-11605
▁зона	-11606
▁общая	-11607
▁детьми	-11608
мут	-11609
Алек	-11610
▁Най	-11611
▁проведена	-11612
▁Монго	-11613
▁соче	-11614
▁левой	-11615
▁тюрьме	-11616
▁Управления	-11617
▁медицин	-11618
▁параллельно	-11619
▁мячей	-11620
▁аспек	-11621
▁сотрудничество	-11622
▁сотрудником	-11623
чками	-11624
▁Казан	-11625
▁Анатолий	-11626
▁номера	-11627
тит	-11628
▁вышло	-11629
▁тюрем	-11630
▁оси	-11631
▁родной	-11632
▁All	-11633
▁количеством	-11634
▁монеты	-11635
▁трижды	-11636
лились	-11637
▁Man	-11638
▁использовалась	-11639
▁Лай	-11640
АП	-11641
нейшие	-11642
▁крово	-11643
▁Лар	-11644
▁цикл	-11645
uro	-11646
▁либе	-11647
▁Миро	-11648
▁эли	-11649
▁Турк	-11650
рьевич	-11651
▁разрешение	-11652
▁альбомом	-11653
▁сотрудничества	-11654
▁передач	-11655
▁подве	-11656
▁секунд	-11657
▁сердце	-11658
▁высоким	-11659
▁обсер	-11660
▁экипаж	-11661
▁спортсменов	-11662
шив	-11663
▁подписан	-11664
стие	-11665
▁записан	-11666
▁рассказа	-11667
теры	-11668
▁командующего	-11669
▁подход	-11670
летряс	-11671
▁представителем	-11672
▁идею	-11673
▁прести	-11674
▁живых	-11675
рических	-11676
▁присутствует	-11677
▁Тен	-11678
▁мужской	-11679
▁базо	-11680
жников	-11681
▁Римской	-11682
▁заду	-11683
▁мани	-11684
▁массовой	-11685
▁специфи	-11686
▁отличаются	-11687
▁объявлен	-11688
ДП	-11689
бую	-11690
▁зака	-11691
эмп	-11692
.-	-11693
▁КНР	-11694
▁Дем	-11695
▁Тамбов	-11696
▁переименована	-11697
▁Ad	-11698
▁скри	-11699
▁Хель	-11700
▁созданный	-11701
▁монет	-11702
▁заведующим	-11703
меда	-11704
▁тормо	-11705
▁призы	-11706
▁Григорий	-11707
▁Поя	-11708
▁юби	-11709
▁больницы	-11710
ствующих	-11711
▁Грей	-11712
▁правой	-11713
ническая	-11714
▁уверен	-11715
▁родном	-11716
▁ДНК	-11717
▁заняв	-11718
▁картине	-11719
▁символизи	-11720
▁куро	-11721
▁запуска	-11722
▁оборону	-11723
ченным	-11724
▁космо	-11725
▁регионального	-11726
▁объединя	-11727
▁инструментов	-11728
▁варьи	-11729
▁жертв	-11730
мура	-11731
▁основой	-11732
сис	-11733
▁хит	-11734
▁Воспитан	-11735
▁голосования	-11736
нир	-11737
ach	-11738
▁юрис	-11739
▁течению	-11740
▁построй	-11741
Тор	-11742
зует	-11743
▁святых	-11744
нт	-11745
▁Казани	-11746
▁впадает	-11747
▁автоматиче	-11748
▁Германию	-11749
▁лин	-11750
▁осозна	-11751
▁передана	-11752
гут	-11753
▁Алба	-11754
пали	-11755
▁Рядом	-11756
tainment	-11757
▁повышения	-11758
▁чин	-11759
▁произошла	-11760
упо	-11761
словия	-11762
▁Калинин	-11763
▁музыкантов	-11764
▁товаров	-11765
▁труды	-11766
пустить	-11767
▁повести	-11768
▁Федера	-11769
▁полное	-11770
оборот	-11771
▁имело	-11772
▁заказа	-11773
▁примени	-11774
▁Узбекистана	-11775
▁мезо	-11776
▁Times	-11777
▁ликвидации	-11778
офи	-11779
▁самоубий	-11780
▁подал	-11781
тр	-11782
▁ущер	-11783
Вен	-11784
ОР	-11785
ладший	-11786
▁Гиль	-11787
▁инци	-11788
▁вопросов	-11789
▁двер	-11790
▁девяти	-11791
▁обладателем	-11792
▁раннего	-11793
▁Награждён	-11794
начале	-11795
▁последнем	-11796
▁мин	-11797
▁Генерального	-11798
АМ	-11799
рические	-11800
▁классической	-11801
дости	-11802
фран	-11803
▁мыс	-11804
▁эсте	-11805
бус	-11806
▁советник	-11807
▁жила	-11808
Мы	-11809
▁ассистен	-11810
▁ато	-11811
цина	-11812
▁привы	-11813
▁Краснодар	-11814
▁выпущенный	-11815
▁Бет	-11816
▁Соревно	-11817
ответ	-11818
▁деревень	-11819
▁Шах	-11820
▁нагруз	-11821
▁адрес	-11822
▁жилых	-11823
гови	-11824
▁реклам	-11825
▁Православ	-11826
.:	-11827
▁предъя	-11828
▁Элизабет	-11829
▁исследователей	-11830
▁храня	-11831
▁цивили	-11832
▁сравнительно	-11833
дка	-11834
▁вста	-11835
▁произошед	-11836
нков	-11837
▁беско	-11838
▁видит	-11839
▁живут	-11840
», —	-11841
конец	-11842
▁иран	-11843
▁налого	-11844
▁обеспечивает	-11845
▁дуб	-11846
▁уди	-11847
▁инфек	-11848
▁символ	-11849
▁ветера	-11850
▁поведение	-11851
▁серти	-11852
▁попытался	-11853
▁таком	-11854
▁сторона	-11855
льтра	-11856
мирала	-11857
▁прибре	-11858
жь	-11859
▁Кари	-11860
▁птицы	-11861
▁далеко	-11862
швили	-11863
▁теме	-11864
▁конкурс	-11865
▁Киевской	-11866
ровок	-11867
▁вперёд	-11868
▁Ней	-11869
▁союзников	-11870
стских	-11871
▁сестры	-11872
тетов	-11873
▁ГЭС	-11874
▁Последние	-11875
▁кримина	-11876
авто	-11877
▁запро	-11878
▁IN	-11879
фаши	-11880
дре	-11881
летий	-11882
▁транспор	-11883
льфа	-11884
ттер	-11885
▁высших	-11886
ОС	-11887
спекти	-11888
▁Вологодской	-11889
▁рабочей	-11890
сского	-11891
▁комиссия	-11892
▁Долго	-11893
▁усовершен	-11894
льи	-11895
нора	-11896
▁ступ	-11897
▁польского	-11898
▁предметов	-11899
▁расту	-11900
▁мульти	-11901
▁аэропор	-11902
▁личного	-11903
гряз	-11904
▁судна	-11905
▁критике	-11906
▁церквей	-11907
▁использовании	-11908
rom	-11909
нома	-11910
ссель	-11911
▁становился	-11912
Мон	-11913
▁медиа	-11914
феро	-11915
▁зре	-11916
пела	-11917
▁Великобритания	-11918
▁Фла	-11919
▁Игна	-11920
▁немедленно	-11921
▁проли	-11922
шева	-11923
MA	-11924
▁Col	-11925
зости	-11926
сполкома	-11927
▁Георгий	-11928
▁исполнил	-11929
ТР	-11930
бое	-11931
чков	-11932
▁бир	-11933
▁акции	-11934
VD	-11935
▁инженера	-11936
▁предметы	-11937
▁следующее	-11938
▁опе	-11939
▁охран	-11940
▁Богородицы	-11941
▁композитора	-11942
▁выру	-11943
▁возникла	-11944
▁продолжали	-11945
▁вспомога	-11946
сово	-11947
▁War	-11948
▁Посе	-11949
примечательности	-11950
товым	-11951
▁Льво	-11952
▁веб	-11953
ерс	-11954
▁чемпионка	-11955
▁построить	-11956
▁обработки	-11957
▁Ны	-11958
рной	-11959
▁Ден	-11960
▁погру	-11961
▁Египта	-11962
▁случайно	-11963
▁специального	-11964
лоне	-11965
стная	-11966
▁ворот	-11967
▁тюрьму	-11968
▁Акт	-11969
тим	-11970
▁ске	-11971
▁Ser	-11972
▁тюрьмы	-11973
▁соедини	-11974
▁приготов	-11975
▁финансов	-11976
промышлен	-11977
жья	-11978
▁Чай	-11979
емыми	-11980
несли	-11981
шеб	-11982
▁проби	-11983
суэ	-11984
нито	-11985
▁недоволь	-11986
вичи	-11987
▁Международная	-11988
▁переселен	-11989
▁религиозных	-11990
▁Сун	-11991
▁статуса	-11992
▁священника	-11993
дю	-11994
▁барабан	-11995
▁рубежом	-11996
▁Люк	-11997
фель	-11998
ствующие	-11999
▁станций	-12000
▁королевы	-12001
▁моделей	-12002
дне	-12003
▁Дмитрия	-12004
▁моменту	-12005
▁Гос	-12006
показа	-12007
▁Собра	-12008
▁лейбле	-12009
Анджелесе	-12010
▁мирового	-12011
▁продемонстри	-12012
▁маршрут	-12013
▁изделий	-12014
▁военном	-12015
▁проведение	-12016
▁серебряный	-12017
ньи	-12018
▁западных	-12019
постав	-12020
▁обитания	-12021
пове	-12022
▁ролей	-12023
▁новому	-12024
▁упоминание	-12025
польской	-12026
▁купе	-12027
▁министерства	-12028
Хи	-12029
▁важных	-12030
▁стихов	-12031
▁процен	-12032
образователь	-12033
▁предыдущих	-12034
стрии	-12035
▁весовой	-12036
личество	-12037
▁портрет	-12038
▁захватил	-12039
▁массив	-12040
▁мг	-12041
▁неизвестно	-12042
чны	-12043
кис	-12044
мбо	-12045
▁странами	-12046
▁опубликована	-12047
▁пару	-12048
▁Деятельность	-12049
уа	-12050
▁публици	-12051
жек	-12052
▁полного	-12053
▁решений	-12054
▁деятелей	-12055
▁Зим	-12056
▁листья	-12057
▁съёмки	-12058
▁сделали	-12059
▁Рейн	-12060
▁располагался	-12061
мология	-12062
лости	-12063
ert	-12064
▁словами	-12065
группа	-12066
▁диагности	-12067
▁разрешения	-12068
шенко	-12069
ash	-12070
ata	-12071
▁воспиты	-12072
▁International	-12073
фона	-12074
▁понятие	-12075
▁лучшие	-12076
▁Алтай	-12077
вае	-12078
линский	-12079
▁фортепиано	-12080
▁называлась	-12081
▁дерева	-12082
▁московского	-12083
▁Петрович	-12084
нео	-12085
▁комедии	-12086
юзи	-12087
▁фестиваль	-12088
▁Олег	-12089
▁разу	-12090
▁детский	-12091
▁песней	-12092
▁переговоров	-12093
▁Ирана	-12094
▁патро	-12095
игра	-12096
▁вырабо	-12097
▁рейтинг	-12098
▁сочинений	-12099
▁кости	-12100
чим	-12101
▁актёра	-12102
▁крупного	-12103
▁бойцов	-12104
▁%,	-12105
▁сче	-12106
рском	-12107
▁суток	-12108
▁движении	-12109
▁лон	-12110
▁Корне	-12111
▁пулемё	-12112
▁разработал	-12113
проект	-12114
▁Медве	-12115
▁архив	-12116
воро	-12117
▁Форму	-12118
▁посети	-12119
▁Обе	-12120
▁пони	-12121
▁Подоб	-12122
▁лежит	-12123
▁Виктора	-12124
▁экрани	-12125
▁большеви	-12126
пеш	-12127
▁шёл	-12128
▁отва	-12129
▁властью	-12130
▁вернулись	-12131
▁воинов	-12132
▁обнаружил	-12133
сек	-12134
▁опол	-12135
фен	-12136
▁Куйбы	-12137
▁богослу	-12138
▁Южная	-12139
▁вене	-12140
▁Богда	-12141
▁Бек	-12142
ковал	-12143
▁появление	-12144
▁ассо	-12145
▁практику	-12146
▁ез	-12147
▁почита	-12148
ненно	-12149
▁уступил	-12150
▁услуги	-12151
▁сотрудничестве	-12152
Ги	-12153
▁рыба	-12154
▁представителями	-12155
▁Председатель	-12156
ude	-12157
▁Синг	-12158
▁вверх	-12159
ап	-12160
рению	-12161
▁функциональ	-12162
▁Dis	-12163
▁шахма	-12164
▁Наиболь	-12165
▁наблюд	-12166
▁Ок	-12167
блей	-12168
Сити	-12169
▁Немец	-12170
▁Хосе	-12171
▁лошадей	-12172
▁взаим	-12173
▁ранга	-12174
пропетров	-12175
▁привести	-12176
▁монографи	-12177
▁Вооружённых	-12178
вились	-12179
▁компакт	-12180
▁Элект	-12181
▁фельд	-12182
▁вооружения	-12183
▁колё	-12184
▁участвует	-12185
▁собственно	-12186
▁Мах	-12187
▁матри	-12188
пина	-12189
тары	-12190
▁Соединённых	-12191
▁Tr	-12192
▁интересы	-12193
▁получают	-12194
▁Шев	-12195
▁Ори	-12196
▁какие	-12197
тела	-12198
▁Вну	-12199
▁очередной	-12200
▁дополнительные	-12201
изе	-12202
▁дата	-12203
льских	-12204
▁пытались	-12205
▁учениками	-12206
гала	-12207
▁дат	-12208
▁докла	-12209
▁остана	-12210
▁колледж	-12211
▁уступа	-12212
будь	-12213
зора	-12214
▁ску	-12215
▁плац	-12216
▁принята	-12217
нинг	-12218
▁буль	-12219
▁управлению	-12220
▁перечислен	-12221
▁Джорджа	-12222
▁привела	-12223
▁описания	-12224
▁регионах	-12225
▁каль	-12226
▁умира	-12227
▁второ	-12228
▁занять	-12229
менение	-12230
метал	-12231
lack	-12232
▁мужем	-12233
▁ведь	-12234
▁четвёртый	-12235
▁Буха	-12236
▁молодого	-12237
▁сооружений	-12238
▁кван	-12239
▁обна	-12240
▁втори	-12241
▁Примечания	-12242
▁математики	-12243
Sp	-12244
erc	-12245
бинского	-12246
▁срока	-12247
▁онлайн	-12248
▁Характери	-12249
▁постоянного	-12250
люс	-12251
нилось	-12252
row	-12253
▁другую	-12254
▁исторический	-12255
сой	-12256
▁студентами	-12257
▁агро	-12258
▁премия	-12259
▁учёбу	-12260
совых	-12261
цзя	-12262
▁Касти	-12263
▁течения	-12264
▁нидерланд	-12265
▁медицинского	-12266
гают	-12267
▁балета	-12268
▁современные	-12269
▁пресс	-12270
▁федерального	-12271
▁шли	-12272
▁еврейской	-12273
▁пространстве	-12274
▁куб	-12275
▁берёт	-12276
▁точка	-12277
ведению	-12278
▁девушка	-12279
▁Чикаго	-12280
MS	-12281
▁Михаи	-12282
манского	-12283
▁спон	-12284
▁Тбили	-12285
▁жанра	-12286
▁колеба	-12287
▁содержи	-12288
▁десятилетия	-12289
▁ограничения	-12290
▁улицу	-12291
иска	-12292
▁бронзовый	-12293
▁федерации	-12294
▁футбольной	-12295
Фе	-12296
▁Or	-12297
▁Нового	-12298
▁мнения	-12299
oth	-12300
▁многолетняя	-12301
▁многими	-12302
▁Башки	-12303
▁советская	-12304
гау	-12305
▁природе	-12306
▁медалями	-12307
Жа	-12308
▁стадион	-12309
▁творчестве	-12310
▁млрд	-12311
▁Серебря	-12312
▁семинарии	-12313
▁Объединён	-12314
▁Эли	-12315
▁клетки	-12316
▁форси	-12317
▁Правительства	-12318
▁юниоров	-12319
▁обучался	-12320
▁немцы	-12321
▁аппарата	-12322
▁Всероссий	-12323
▁водохранилища	-12324
▁волн	-12325
▁грана	-12326
▁границах	-12327
зив	-12328
▁статусом	-12329
▁вд	-12330
▁перепи	-12331
▁учителя	-12332
▁r	-12333
чок	-12334
▁письме	-12335
▁определить	-12336
мане	-12337
рицы	-12338
варда	-12339
▁арген	-12340
▁приеха	-12341
▁призыва	-12342
▁отличился	-12343
виле	-12344
▁больнице	-12345
▁официальным	-12346
▁юсти	-12347
ловича	-12348
▁Коммунисти	-12349
▁Мала	-12350
▁дро	-12351
▁минера	-12352
националь	-12353
▁мощности	-12354
вилл	-12355
▁Екатерина	-12356
наче	-12357
▁карты	-12358
▁трек	-12359
▁шле	-12360
жок	-12361
▁коротким	-12362
ронто	-12363
▁неправи	-12364
▁затруд	-12365
▁кух	-12366
▁вдохнов	-12367
ссен	-12368
▁Кала	-12369
▁победа	-12370
евская	-12371
тивную	-12372
▁Свобо	-12373
▁Примор	-12374
▁перепра	-12375
▁центров	-12376
▁влюб	-12377
▁структуру	-12378
▁горах	-12379
▁герб	-12380
▁волны	-12381
▁Территория	-12382
няк	-12383
водит	-12384
▁Гонкон	-12385
▁прилега	-12386
▁совокуп	-12387
▁изучение	-12388
▁Классификация	-12389
чёв	-12390
▁торпе	-12391
▁Абра	-12392
▁оболо	-12393
▁Палести	-12394
▁молодёжной	-12395
▁создали	-12396
▁телефон	-12397
▁навы	-12398
▁Сил	-12399
▁планировалось	-12400
▁военнослужащих	-12401
▁знал	-12402
▁трудов	-12403
▁перекры	-12404
▁професси	-12405
читан	-12406
меры	-12407
▁Таджики	-12408
▁морского	-12409
рующих	-12410
▁вертолё	-12411
▁музыканты	-12412
▁богат	-12413
вости	-12414
▁Моро	-12415
▁активной	-12416
▁отдельной	-12417
▁популярных	-12418
▁отряды	-12419
▁капитаном	-12420
▁тща	-12421
▁Бориса	-12422
▁Екатерины	-12423
▁последствия	-12424
▁Работы	-12425
пав	-12426
юго	-12427
▁последовательно	-12428
рины	-12429
▁левый	-12430
yst	-12431
▁поддерживает	-12432
▁Всё	-12433
гуа	-12434
▁папа	-12435
▁дифферен	-12436
▁генеральный	-12437
▁центрального	-12438
▁представил	-12439
ляция	-12440
▁двигателей	-12441
▁вела	-12442
▁Сэ	-12443
бека	-12444
▁фронтах	-12445
▁заявление	-12446
▁врага	-12447
▁диплом	-12448
▁ярко	-12449
▁жителями	-12450
▁аниме	-12451
▁национальном	-12452
пуляр	-12453
▁удаётся	-12454
▁принадлежал	-12455
▁бей	-12456
▁подчёрки	-12457
▁социального	-12458
▁души	-12459
стических	-12460
▁помощник	-12461
Спи	-12462
▁художеств	-12463
хоз	-12464
терии	-12465
▁Кристо	-12466
зацией	-12467
▁значительные	-12468
▁заключил	-12469
▁Киевского	-12470
▁покуп	-12471
▁Дире	-12472
▁опубликованы	-12473
▁пришла	-12474
вес	-12475
сторо	-12476
▁Вита	-12477
▁учётом	-12478
▁Струк	-12479
▁серебряным	-12480
▁концентра	-12481
ссией	-12482
▁молоде	-12483
▁Команда	-12484
▁Поля	-12485
▁топ	-12486
▁мотивам	-12487
▁Британской	-12488
ИС	-12489
шени	-12490
▁игроки	-12491
▁привёл	-12492
▁согласился	-12493
ьем	-12494
▁Леона	-12495
▁инструмента	-12496
леты	-12497
рские	-12498
▁мастерской	-12499
▁несо	-12500
▁репер	-12501
▁траге	-12502
▁Вероят	-12503
▁египет	-12504
▁песне	-12505
▁танка	-12506
▁Сель	-12507
ционными	-12508
▁Мексики	-12509
▁мол	-12510
▁думы	-12511
▁бежал	-12512
▁полуфинале	-12513
тирует	-12514
▁останавли	-12515
▁зимних	-12516
▁экономически	-12517
нив	-12518
▁Гроз	-12519
▁бюдже	-12520
▁цело	-12521
технического	-12522
▁планеты	-12523
▁тема	-12524
▁дебютировала	-12525
oh	-12526
▁циф	-12527
▁Иоанн	-12528
▁независимо	-12529
▁шер	-12530
▁текстов	-12531
дётся	-12532
▁такая	-12533
дорф	-12534
тека	-12535
циал	-12536
▁расстрой	-12537
▁Река	-12538
ican	-12539
▁обеспечение	-12540
▁уйти	-12541
▁отдельный	-12542
▁монаше	-12543
▁изучению	-12544
▁плацдар	-12545
lat	-12546
ляли	-12547
▁капиту	-12548
тти	-12549
ьях	-12550
▁склад	-12551
▁образуют	-12552
Евро	-12553
стное	-12554
▁полосы	-12555
▁просьбой	-12556
товая	-12557
вержен	-12558
▁Op	-12559
▁врача	-12560
▁Восточно	-12561
▁художественного	-12562
▁реформа	-12563
▁Марка	-12564
▁Михайлов	-12565
▁ВМС	-12566
ровых	-12567
▁ввиду	-12568
▁троллей	-12569
шах	-12570
уи	-12571
филд	-12572
тированы	-12573
▁испытаний	-12574
▁ближе	-12575
▁реже	-12576
▁энерго	-12577
▁Пру	-12578
▁иконо	-12579
▁Пресвя	-12580
▁нейро	-12581
дзу	-12582
▁Пле	-12583
▁Вяче	-12584
▁консо	-12585
дем	-12586
риях	-12587
▁алле	-12588
▁ГДР	-12589
станция	-12590
▁Филипп	-12591
▁фамилия	-12592
▁отказаться	-12593
▁Соедин	-12594
целя	-12595
AR	-12596
▁видел	-12597
▁журналах	-12598
▁обращения	-12599
льников	-12600
▁лек	-12601
▁Фреде	-12602
▁эмигри	-12603
включая	-12604
▁русским	-12605
рс	-12606
▁обру	-12607
▁Ска	-12608
▁этими	-12609
ллип	-12610
▁Наде	-12611
▁обре	-12612
нуне	-12613
▁султана	-12614
▁Хорватии	-12615
▁вниз	-12616
ild	-12617
▁Мя	-12618
▁сою	-12619
▁изба	-12620
▁сказать	-12621
стической	-12622
ale	-12623
новок	-12624
▁Брат	-12625
точных	-12626
▁реабили	-12627
▁законов	-12628
▁формате	-12629
▁метрополи	-12630
▁насы	-12631
▁замеча	-12632
▁ока	-12633
▁грам	-12634
▁неожиданно	-12635
▁дерево	-12636
нибудь	-12637
▁астерои	-12638
ream	-12639
▁час	-12640
▁психологии	-12641
▁Хаба	-12642
▁японской	-12643
▁представляли	-12644
ману	-12645
▁Фердина	-12646
▁подобных	-12647
▁душ	-12648
▁оставив	-12649
▁Черномор	-12650
▁захватили	-12651
▁репута	-12652
▁немецкие	-12653
▁Бун	-12654
▁Постановлением	-12655
▁взаимодействия	-12656
▁удержа	-12657
Billboard	-12658
▁поселений	-12659
▁представление	-12660
▁взвода	-12661
▁найдены	-12662
▁правя	-12663
ner	-12664
Исто	-12665
▁государством	-12666
▁другая	-12667
▁уничтожил	-12668
▁Вместо	-12669
▁играют	-12670
▁жюри	-12671
▁успехи	-12672
▁искусстве	-12673
бинской	-12674
енные	-12675
▁фильмом	-12676
▁забы	-12677
▁сколько	-12678
тине	-12679
▁полноцен	-12680
▁геологи	-12681
▁совхоза	-12682
▁разведыватель	-12683
▁сердца	-12684
▁тексты	-12685
▁изобрази	-12686
Категория	-12687
щенно	-12688
▁голоса	-12689
▁коэффици	-12690
▁просит	-12691
▁заметно	-12692
сина	-12693
менности	-12694
▁st	-12695
▁глубине	-12696
▁возведён	-12697
лить	-12698
▁Ари	-12699
▁танковой	-12700
жие	-12701
▁профсо	-12702
юль	-12703
▁референ	-12704
метри	-12705
▁Арка	-12706
▁Такие	-12707
▁населённого	-12708
▁попытка	-12709
▁оригинальной	-12710
▁укрепления	-12711
po	-12712
se	-12713
штат	-12714
▁ЕС	-12715
▁сюжета	-12716
лейтенант	-12717
ТС	-12718
шков	-12719
▁единственной	-12720
хина	-12721
▁баллов	-12722
▁For	-12723
▁выпущено	-12724
бол	-12725
зни	-12726
▁Дави	-12727
▁спокой	-12728
ствование	-12729
▁расширен	-12730
▁конфе	-12731
▁Участники	-12732
ковом	-12733
▁лесах	-12734
▁Колумбии	-12735
▁Антонио	-12736
▁смертью	-12737
▁Семи	-12738
ногих	-12739
▁отказались	-12740
мири	-12741
▁Старший	-12742
▁гражданских	-12743
▁племена	-12744
▁позиций	-12745
▁кадров	-12746
▁станцию	-12747
▁землетряс	-12748
мё	-12749
цла	-12750
▁кандидатскую	-12751
нга	-12752
▁оппозиции	-12753
▁рук	-12754
▁Книга	-12755
▁шай	-12756
▁сахар	-12757
ровым	-12758
▁идеологи	-12759
▁саундтре	-12760
матери	-12761
▁Конституции	-12762
▁Лы	-12763
▁ВМФ	-12764
▁диска	-12765
вающая	-12766
▁опыта	-12767
▁мероприятий	-12768
рный	-12769
▁Воспитанник	-12770
▁Особен	-12771
▁девушки	-12772
рк	-12773
▁выбро	-12774
▁упомяну	-12775
▁понятия	-12776
▁Дома	-12777
▁вещи	-12778
▁Колле	-12779
▁Бёр	-12780
Ar	-12781
▁легкоат	-12782
Вол	-12783
ляют	-12784
▁владение	-12785
▁Ярославской	-12786
▁приобрела	-12787
▁Политическая	-12788
сипе	-12789
▁означа	-12790
▁публику	-12791
взо	-12792
▁al	-12793
▁Крем	-12794
▁нашли	-12795
▁связей	-12796
▁источник	-12797
▁изя	-12798
▁Одно	-12799
рные	-12800
ложению	-12801
▁дорогу	-12802
▁Джеймса	-12803
▁ставший	-12804
▁выиграть	-12805
▁испанский	-12806
▁положительные	-12807
▁высокую	-12808
▁одноимённого	-12809
рская	-12810
▁двадцати	-12811
слей	-12812
▁Ольга	-12813
▁судно	-12814
▁проходя	-12815
▁навод	-12816
▁Шей	-12817
жур	-12818
▁опор	-12819
▁НИИ	-12820
▁служеб	-12821
▁титула	-12822
▁британских	-12823
илл	-12824
▁забра	-12825
▁итальянского	-12826
вла	-12827
▁юга	-12828
▁говорить	-12829
▁псевдонимом	-12830
▁Смерть	-12831
инг	-12832
▁руд	-12833
▁Entertainment	-12834
▁блестя	-12835
▁коп	-12836
▁считался	-12837
▁хранения	-12838
шевского	-12839
▁участки	-12840
▁золота	-12841
градского	-12842
▁передать	-12843
грантов	-12844
▁белого	-12845
▁традиционно	-12846
гского	-12847
цких	-12848
▁боги	-12849
лям	-12850
▁газет	-12851
▁эскадри	-12852
▁Источники	-12853
▁надё	-12854
▁фикси	-12855
▁англича	-12856
▁Северный	-12857
▁поведения	-12858
соно	-12859
тельному	-12860
▁эпизоде	-12861
зывов	-12862
мпа	-12863
▁Car	-12864
▁Изу	-12865
сными	-12866
▁попытку	-12867
▁назвали	-12868
▁Александром	-12869
▁киносту	-12870
▁Принимал	-12871
▁своеобраз	-12872
▁выдающиеся	-12873
ино	-12874
дыстория	-12875
▁оружием	-12876
▁являлось	-12877
▁королевской	-12878
брю	-12879
▁вед	-12880
▁палаты	-12881
честве	-12882
▁мастеров	-12883
ерей	-12884
▁Двор	-12885
влении	-12886
▁прор	-12887
▁инструк	-12888
▁списка	-12889
▁Больше	-12890
▁граничит	-12891
▁склады	-12892
города	-12893
▁тока	-12894
▁захватчи	-12895
нулась	-12896
▁Гомель	-12897
чреди	-12898
▁сыну	-12899
▁захватить	-12900
▁школах	-12901
ппа	-12902
uper	-12903
ровича	-12904
Россия	-12905
▁Франсуа	-12906
▁кислоты	-12907
▁разработку	-12908
▁Company	-12909
▁чувства	-12910
▁мужество	-12911
это	-12912
▁ветра	-12913
▁состоят	-12914
▁документах	-12915
▁меньшей	-12916
хау	-12917
чатые	-12918
▁паре	-12919
▁российские	-12920
▁Адоль	-12921
кель	-12922
▁аргу	-12923
▁скота	-12924
▁созвездии	-12925
зидент	-12926
▁рабочий	-12927
▁гвардейского	-12928
▁лежа	-12929
▁укры	-12930
▁правительстве	-12931
украин	-12932
▁согласо	-12933
▁бакалавра	-12934
▁Sch	-12935
жская	-12936
▁Ind	-12937
▁деви	-12938
▁Часто	-12939
▁Депута	-12940
▁расширя	-12941
кля	-12942
двиг	-12943
од	-12944
▁ас	-12945
▁пород	-12946
▁местном	-12947
▁увер	-12948
▁духовен	-12949
▁My	-12950
▁издательства	-12951
ле́	-12952
▁критик	-12953
▁приклад	-12954
▁средних	-12955
▁Сур	-12956
щала	-12957
намика	-12958
▁валю	-12959
▁пенсионе	-12960
▁основанный	-12961
▁бронзовым	-12962
роу	-12963
▁украинской	-12964
▁митрополит	-12965
лики	-12966
▁круга	-12967
▁ремонт	-12968
хэ	-12969
▁выходил	-12970
▁художественных	-12971
ios	-12972
▁изделия	-12973
рьмя	-12974
▁Юрия	-12975
ковыми	-12976
станской	-12977
▁показан	-12978
▁корабле	-12979
▁соединений	-12980
▁демоби	-12981
▁способом	-12982
▁туристи	-12983
щных	-12984
▁борьба	-12985
▁Лука	-12986
летие	-12987
▁эмоциональ	-12988
▁лед	-12989
▁Аргентины	-12990
Все	-12991
▁отказ	-12992
▁попали	-12993
фессор	-12994
▁трамвай	-12995
▁официальный	-12996
веты	-12997
юре	-12998
▁рыца	-12999
▁супруги	-13000
▁свободного	-13001
енный	-13002
▁пли	-13003
▁совмести	-13004
▁электроэнер	-13005
▁плодо	-13006
Анджелес	-13007
▁специальные	-13008
▁предусмот	-13009
риата	-13010
ere	-13011
▁Фернан	-13012
гат	-13013
▁малых	-13014
▁Соревнования	-13015
▁ответственность	-13016
▁кожи	-13017
Ше	-13018
▁Чехословакии	-13019
▁цветов	-13020
▁операция	-13021
▁севернее	-13022
▁поддерживал	-13023
голо	-13024
▁гено	-13025
ённой	-13026
▁учёные	-13027
▁одиночном	-13028
био	-13029
▁День	-13030
▁водоро	-13031
▁депо	-13032
▁гражданского	-13033
oph	-13034
▁облег	-13035
▁минуты	-13036
▁сумме	-13037
ющимися	-13038
▁выставка	-13039
▁Ере	-13040
▁самцов	-13041
лекопита	-13042
▁заседании	-13043
▁представителя	-13044
▁сохранилось	-13045
▁яи	-13046
▁критику	-13047
вель	-13048
штейна	-13049
пус	-13050
ony	-13051
скрип	-13052
▁солдаты	-13053
▁Фридриха	-13054
тури	-13055
ink	-13056
▁Разви	-13057
▁украинских	-13058
▁прер	-13059
влялись	-13060
▁актёров	-13061
▁балет	-13062
▁департамент	-13063
лизация	-13064
▁недостато	-13065
▁сборных	-13066
▁Хам	-13067
ЕС	-13068
▁семейство	-13069
ндж	-13070
▁хирур	-13071
▁услы	-13072
полномо	-13073
зам	-13074
литет	-13075
▁избирателей	-13076
Коро	-13077
▁Вет	-13078
▁подразделение	-13079
▁публикаций	-13080
ссом	-13081
▁корей	-13082
силь	-13083
▁Пензен	-13084
▁достовер	-13085
▁Англию	-13086
▁съёмок	-13087
▁обыкновен	-13088
▁столицу	-13089
IS	-13090
▁подоз	-13091
▁журналистов	-13092
водитель	-13093
ланда	-13094
▁вока	-13095
▁приста	-13096
▁бизнеса	-13097
▁удостои	-13098
▁встретился	-13099
▁батареи	-13100
▁размести	-13101
▁Кос	-13102
▁имму	-13103
▁образована	-13104
водил	-13105
▁креп	-13106
воздуш	-13107
дс	-13108
чников	-13109
чника	-13110
▁располагались	-13111
▁двоюрод	-13112
Локомо	-13113
▁иконы	-13114
▁Значи	-13115
▁обороне	-13116
▁диссертации	-13117
визии	-13118
▁Грод	-13119
ровало	-13120
ральное	-13121
▁происходя	-13122
▁Тек	-13123
▁закрыт	-13124
▁поступила	-13125
way	-13126
шна	-13127
эна	-13128
знец	-13129
тировали	-13130
▁зачислен	-13131
▁конь	-13132
▁Востоке	-13133
▁академик	-13134
▁разным	-13135
▁манда	-13136
▁насекомых	-13137
▁Чо	-13138
ванной	-13139
▁работник	-13140
▁(№ 	-13141
▁Архитек	-13142
пци	-13143
▁оценке	-13144
▁оставить	-13145
▁советника	-13146
▁французском	-13147
дило	-13148
▁криста	-13149
▁Gu	-13150
▁въ	-13151
▁стой	-13152
москов	-13153
▁лицом	-13154
▁Карло	-13155
▁расследования	-13156
стского	-13157
▁урожен	-13158
▁предска	-13159
▁юстиции	-13160
▁суде	-13161
▁Османской	-13162
▁изготавли	-13163
▁восприя	-13164
▁скульптуры	-13165
Моло	-13166
▁клубу	-13167
реа	-13168
фельд	-13169
▁расположенных	-13170
odice	-13171
щенко	-13172
ссамбле	-13173
лас	-13174
▁лодки	-13175
▁европейской	-13176
▁напол	-13177
▁любого	-13178
att	-13179
▁правый	-13180
▁национальности	-13181
кура	-13182
▁мече	-13183
русские	-13184
▁Афана	-13185
▁практики	-13186
▁Вьетна	-13187
▁Литература	-13188
няют	-13189
▁голос	-13190
li	-13191
дене	-13192
▁доля	-13193
▁взяли	-13194
после	-13195
▁погреб	-13196
ime	-13197
▁Рима	-13198
▁законом	-13199
ott	-13200
▁Элли	-13201
ровском	-13202
▁увлека	-13203
▁помогает	-13204
вость	-13205
▁прослу	-13206
▁Константина	-13207
▁ай	-13208
▁группами	-13209
ПЦ	-13210
рация	-13211
▁Запоро	-13212
▁древней	-13213
▁отличия	-13214
▁Бол	-13215
тизации	-13216
▁глубоко	-13217
▁гастроли	-13218
▁покинули	-13219
меди	-13220
▁Gam	-13221
дак	-13222
▁покой	-13223
▁рассчиты	-13224
▁ткани	-13225
▁Предыстория	-13226
▁Стамбу	-13227
▁набира	-13228
▁слабы	-13229
▁Рафа	-13230
▁Днепропетров	-13231
▁Ом	-13232
▁изменение	-13233
▁имущества	-13234
▁португаль	-13235
▁тесно	-13236
▁перспек	-13237
деми	-13238
▁квар	-13239
▁наказания	-13240
рного	-13241
ъютан	-13242
▁Тони	-13243
▁задачей	-13244
▁наблюдается	-13245
план	-13246
▁Кандида	-13247
▁Лет	-13248
▁Храм	-13249
нус	-13250
▁решила	-13251
▁Евгения	-13252
▁государственные	-13253
▁породы	-13254
▁подсемейства	-13255
▁Фели	-13256
▁пулемёт	-13257
▁украинского	-13258
▁Wh	-13259
▁DVD	-13260
майора	-13261
▁Костромской	-13262
спа	-13263
▁Пон	-13264
польский	-13265
▁платформа	-13266
▁вычис	-13267
бона	-13268
▁НХЛ	-13269
чиной	-13270
▁соавтор	-13271
▁одноимённой	-13272
таясь	-13273
▁Фёдор	-13274
тального	-13275
▁содержат	-13276
▁четырьмя	-13277
▁Обу	-13278
▁Лью	-13279
▁распространены	-13280
хами	-13281
pr	-13282
▁требуется	-13283
▁обслуживания	-13284
стным	-13285
▁Стокголь	-13286
ney	-13287
гка	-13288
чилась	-13289
▁зажи	-13290
тельница	-13291
▁труб	-13292
▁Net	-13293
▁отдал	-13294
▁превышает	-13295
▁Гур	-13296
▁Анаста	-13297
▁страна	-13298
▁экстра	-13299
▁позволяют	-13300
ппо	-13301
▁Герман	-13302
дового	-13303
▁бежать	-13304
▁игрой	-13305
▁Бюро	-13306
▁дано	-13307
Спартак	-13308
лендар	-13309
▁дворце	-13310
▁Министров	-13311
▁будди	-13312
▁помещении	-13313
▁Мухам	-13314
▁латин	-13315
▁снял	-13316
▁Петербурге	-13317
▁размно	-13318
▁оставалась	-13319
▁Окс	-13320
▁обращение	-13321
vel	-13322
▁App	-13323
▁Отто	-13324
▁армий	-13325
Хар	-13326
жар	-13327
пром	-13328
деш	-13329
▁наме	-13330
ствуя	-13331
ical	-13332
▁Эпи	-13333
▁Начал	-13334
▁отправляется	-13335
▁Памятник	-13336
▁разновид	-13337
▁переза	-13338
▁спла	-13339
▁лучшую	-13340
▁первыми	-13341
▁пригово	-13342
ломе	-13343
▁Тренер	-13344
▁активными	-13345
▁тяжёлой	-13346
сал	-13347
евро	-13348
▁Фун	-13349
▁директоров	-13350
▁постоянной	-13351
лэк	-13352
▁бай	-13353
▁рука	-13354
▁фено	-13355
▁Изо	-13356
мейстер	-13357
▁статья	-13358
▁английской	-13359
▁дожд	-13360
▁управлении	-13361
▁едва	-13362
▁опять	-13363
▁микрорай	-13364
▁называемый	-13365
▁NGC	-13366
▁НАТО	-13367
рость	-13368
▁пострада	-13369
▁Сал	-13370
▁ландша	-13371
шила	-13372
▁Сала	-13373
▁явления	-13374
вис	-13375
▁ошиб	-13376
▁читал	-13377
варе	-13378
▁Неа	-13379
▁Коль	-13380
▁Сейчас	-13381
▁Томаса	-13382
стёр	-13383
▁Кинг	-13384
сюда	-13385
▁детских	-13386
▁хоре	-13387
▁справедливо	-13388
▁контракта	-13389
▁склон	-13390
▁контакт	-13391
▁инженером	-13392
рэм	-13393
минг	-13394
▁отдельно	-13395
“».	-13396
▁элементами	-13397
▁Вернувшись	-13398
▁банков	-13399
▁напоминает	-13400
▁ею	-13401
▁Отзывы	-13402
▁зачастую	-13403
▁классу	-13404
дта	-13405
гова	-13406
▁Экс	-13407
▁Саксо	-13408
▁изображением	-13409
ile	-13410
довые	-13411
товый	-13412
▁прошлого	-13413
▁пригород	-13414
▁наход	-13415
монд	-13416
ленную	-13417
▁широкое	-13418
▁Gr	-13419
▁отоз	-13420
▁немецкими	-13421
▁Смоленской	-13422
Кур	-13423
▁Ога	-13424
▁сприн	-13425
▁детали	-13426
▁ультра	-13427
▁прокура	-13428
▁Мюнх	-13429
▁эпизодов	-13430
▁восстановить	-13431
▁коротком	-13432
ome	-13433
▁состоялись	-13434
ёнок	-13435
▁вокаль	-13436
▁публикова	-13437
▁Револю	-13438
▁фундаменталь	-13439
▁оли	-13440
BS	-13441
Франци	-13442
ES	-13443
▁окна	-13444
▁кризиса	-13445
▁границей	-13446
▁расположенная	-13447
▁Речи	-13448
ницкого	-13449
▁чрезвычайно	-13450
▁широкий	-13451
дня	-13452
▁Архангельской	-13453
son	-13454
▁млекопита	-13455
говых	-13456
▁Пита	-13457
▁давно	-13458
▁молодым	-13459
▁частями	-13460
▁железных	-13461
▁обоб	-13462
▁Яна	-13463
плина	-13464
▁полномочия	-13465
тум	-13466
▁досро	-13467
статисти	-13468
▁почему	-13469
▁сверху	-13470
▁преследования	-13471
нейро	-13472
▁давление	-13473
▁точек	-13474
▁посмертно	-13475
переда	-13476
▁мультфиль	-13477
▁лейтенанта	-13478
▁Перво	-13479
▁Ленинграда	-13480
лиал	-13481
▁музыкант	-13482
▁York	-13483
рным	-13484
дным	-13485
▁вершине	-13486
▁особого	-13487
тос	-13488
▁Первого	-13489
▁поддержал	-13490
▁развитием	-13491
хон	-13492
▁мюзи	-13493
▁Тя	-13494
люми	-13495
ппи	-13496
▁Стро	-13497
▁учения	-13498
▁Дор	-13499
▁Кав	-13500
дский	-13501
▁комен	-13502
▁взрыва	-13503
▁приказом	-13504
▁Мэй	-13505
ляются	-13506
▁выводу	-13507
▁отмени	-13508
▁сбора	-13509
▁получивший	-13510
▁озёр	-13511
▁первич	-13512
▁Мухамма	-13513
▁двадцать	-13514
▁гово	-13515
▁нашёл	-13516
▁анонси	-13517
▁секции	-13518
пель	-13519
▁Оз	-13520
ченная	-13521
▁знания	-13522
пка	-13523
тыся	-13524
▁Обла	-13525
▁Опера	-13526
▁принадлежат	-13527
дара	-13528
▁охла	-13529
▁уходит	-13530
▁Парк	-13531
▁Количество	-13532
тау	-13533
▁Жил	-13534
▁князей	-13535
▁пропор	-13536
ническим	-13537
▁немецким	-13538
лиса	-13539
▁вика	-13540
▁старого	-13541
▁иначе	-13542
▁загряз	-13543
▁оттуда	-13544
ющееся	-13545
▁попадает	-13546
була	-13547
▁Шек	-13548
ховского	-13549
▁контролем	-13550
гара	-13551
▁посчита	-13552
шествия	-13553
▁версий	-13554
▁губернатором	-13555
рим	-13556
скры	-13557
▁подс	-13558
влена	-13559
етыре	-13560
слежи	-13561
▁комедий	-13562
SEE	-13563
▁изображён	-13564
гета	-13565
▁Эм	-13566
▁лигу	-13567
▁широкой	-13568
▁подразделений	-13569
▁Брук	-13570
Три	-13571
▁баро	-13572
▁набе	-13573
▁объектом	-13574
тилось	-13575
▁ослож	-13576
▁Черного	-13577
▁полномочий	-13578
жёр	-13579
▁Рязанской	-13580
▁Европу	-13581
▁небо	-13582
▁журналов	-13583
▁сражение	-13584
пат	-13585
хор	-13586
бирской	-13587
▁Брэ	-13588
▁назывался	-13589
мил	-13590
▁Вашингтон	-13591
▁говорится	-13592
▁восстанови	-13593
▁Венесуэ	-13594
▁водосбор	-13595
▁объявили	-13596
▁Тель	-13597
anc	-13598
ёма	-13599
пес	-13600
▁лесу	-13601
▁Остро	-13602
Это	-13603
фак	-13604
▁сентябрь	-13605
▁МГ	-13606
лино	-13607
лёку	-13608
линей	-13609
▁обря	-13610
▁импер	-13611
тва	-13612
▁метода	-13613
▁гомосексу	-13614
ргиз	-13615
▁акту	-13616
История	-13617
▁возникает	-13618
▁Лиге	-13619
▁измерения	-13620
▁безо	-13621
▁взгляды	-13622
▁проведены	-13623
▁Ныне	-13624
▁радикаль	-13625
Гра	-13626
▁сохранения	-13627
▁написаны	-13628
▁группировки	-13629
ФК	-13630
ука	-13631
▁Мэн	-13632
▁Ибра	-13633
▁носил	-13634
▁посвятил	-13635
▁Пресвятой	-13636
▁популярной	-13637
▁мином	-13638
логического	-13639
▁столкновения	-13640
▁Свой	-13641
▁землях	-13642
▁младшего	-13643
логический	-13644
▁крестьянских	-13645
▁ошибо	-13646
▁нала	-13647
▁Начина	-13648
▁настаи	-13649
▁Сборная	-13650
▁аги	-13651
▁передви	-13652
▁Пы	-13653
товский	-13654
▁назначение	-13655
ife	-13656
▁Победы	-13657
▁диаметром	-13658
▁руководителей	-13659
▁Альбер	-13660
▁немецком	-13661
▁подлин	-13662
▁объединены	-13663
▁восстановлен	-13664
емле	-13665
ванни	-13666
▁современном	-13667
мандри	-13668
▁намного	-13669
▁пациентов	-13670
▁самолёты	-13671
▁Вят	-13672
▁Завер	-13673
дец	-13674
▁захвата	-13675
▁желание	-13676
летняя	-13677
▁Действие	-13678
▁иных	-13679
▁фарма	-13680
МО	-13681
▁Дай	-13682
▁Чарльз	-13683
▁Тульской	-13684
▁скоростью	-13685
▁Сэм	-13686
▁раб	-13687
▁робо	-13688
▁Филиппа	-13689
▁Ол	-13690
▁полиция	-13691
▁двигателем	-13692
▁левого	-13693
▁рассказов	-13694
▁указано	-13695
▁берегах	-13696
▁командном	-13697
женные	-13698
▁вычисли	-13699
дай	-13700
▁Харьков	-13701
▁чечен	-13702
▁основная	-13703
▁зон	-13704
водом	-13705
▁Холо	-13706
ами	-13707
▁Думы	-13708
▁Перио	-13709
▁неофициаль	-13710
тоном	-13711
▁наши	-13712
▁проявленные	-13713
▁Con	-13714
▁фигуры	-13715
▁создавать	-13716
мак	-13717
▁душу	-13718
▁вытес	-13719
▁жизнен	-13720
▁царства	-13721
шни	-13722
▁Генна	-13723
▁Башкортостан	-13724
▁свидетельства	-13725
поста	-13726
емуа	-13727
годно	-13728
▁Вильгельм	-13729
▁свидетельствует	-13730
▁промышленных	-13731
▁подар	-13732
▁Советов	-13733
▁итальянской	-13734
▁некоторыми	-13735
дми	-13736
▁Рэй	-13737
▁экспре	-13738
▁металлурги	-13739
▁Med	-13740
▁травя	-13741
▁разногла	-13742
▁вызвал	-13743
▁левому	-13744
▁At	-13745
▁помощника	-13746
оти	-13747
▁Amer	-13748
▁сути	-13749
▁сталки	-13750
▁основную	-13751
▁сно	-13752
▁Станция	-13753
▁выиграв	-13754
...	-13755
▁пещ	-13756
рующие	-13757
▁каким	-13758
▁взры	-13759
▁коде	-13760
Золотая	-13761
▁Фра	-13762
▁Дебют	-13763
▁конечно	-13764
▁велосипе	-13765
▁оже	-13766
▁Упра	-13767
▁общую	-13768
▁теорию	-13769
вающего	-13770
▁половину	-13771
▁значительную	-13772
▁ролях	-13773
струкция	-13774
́л	-13775
▁Дву	-13776
тано	-13777
▁Tel	-13778
▁Ред	-13779
стина	-13780
▁башня	-13781
ложены	-13782
▁штурмо	-13783
шенно	-13784
▁производится	-13785
▁кВт	-13786
▁барон	-13787
▁заданий	-13788
▁расширения	-13789
емом	-13790
ьёв	-13791
▁Буд	-13792
Бал	-13793
▁справа	-13794
▁прозвище	-13795
▁фактиче	-13796
▁воро	-13797
бр	-13798
бара	-13799
▁убивает	-13800
▁интеллекту	-13801
Th	-13802
uk	-13803
сыпа	-13804
▁Инди	-13805
лины	-13806
ладен	-13807
цено	-13808
▁руку	-13809
▁Сегодня	-13810
▁славян	-13811
виться	-13812
больной	-13813
сио	-13814
▁Мех	-13815
данных	-13816
цет	-13817
риев	-13818
дской	-13819
▁воспользо	-13820
▁Улица	-13821
Союз	-13822
▁фигури	-13823
▁больных	-13824
▁ответственности	-13825
радо	-13826
▁Времен	-13827
▁отрасли	-13828
▁Дуб	-13829
▁депре	-13830
▁убиты	-13831
▁христи	-13832
▁размеров	-13833
ena	-13834
▁выполнил	-13835
жим	-13836
▁монар	-13837
▁представляла	-13838
СК	-13839
…&	-13840
▁Бота	-13841
Дон	-13842
ings	-13843
▁десятков	-13844
ренко	-13845
na	-13846
▁экви	-13847
▁популярности	-13848
▁Египет	-13849
дэ	-13850
▁Коз	-13851
▁мёрт	-13852
▁нужда	-13853
подалёку	-13854
Петербургской	-13855
ТВ	-13856
▁старой	-13857
▁ночи	-13858
▁Эдвард	-13859
▁переходит	-13860
ana	-13861
▁американским	-13862
▁получал	-13863
бие	-13864
тину	-13865
▁включал	-13866
▁Алекса́нд	-13867
▁учреждение	-13868
▁вирту	-13869
▁обнаружено	-13870
▁Большое	-13871
▁привлек	-13872
▁Нан	-13873
▁фабрики	-13874
▁действовал	-13875
кус	-13876
▁Петербург	-13877
▁Кази	-13878
▁походе	-13879
AC	-13880
▁Вз	-13881
▁Иза	-13882
▁кубка	-13883
▁фору	-13884
класси	-13885
▁балан	-13886
▁взро	-13887
▁Генерал	-13888
▁Красноя	-13889
▁километра	-13890
▁ров	-13891
частли	-13892
▁набрав	-13893
▁мэ	-13894
▁съезде	-13895
▁иера	-13896
▁листь	-13897
лея	-13898
▁поисках	-13899
▁Статус	-13900
▁западном	-13901
▁главнокоманду	-13902
▁боже	-13903
▁оставались	-13904
нят	-13905
▁Джер	-13906
▁Трам	-13907
▁Эндрю	-13908
▁милиции	-13909
▁Тради	-13910
▁немецко	-13911
▁заканчивается	-13912
ложена	-13913
АК	-13914
писан	-13915
▁заявив	-13916
lect	-13917
Пере	-13918
тирована	-13919
▁послужи	-13920
▁водя	-13921
▁Вероятно	-13922
шной	-13923
▁codice	-13924
графической	-13925
▁Волы	-13926
▁бесс	-13927
разуме	-13928
▁Арт	-13929
▁похоро	-13930
рический	-13931
▁Этимология	-13932
▁Крон	-13933
▁сати	-13934
▁убил	-13935
поло	-13936
▁гей	-13937
везды	-13938
▁увен	-13939
▁осуждён	-13940
▁бесконе	-13941
хро	-13942
▁увидел	-13943
▁заключи	-13944
▁коопера	-13945
▁насилия	-13946
бережной	-13947
▁Крыму	-13948
орга	-13949
▁Сици	-13950
▁военнослужа	-13951
▁существовало	-13952
ters	-13953
▁Место	-13954
▁императором	-13955
▁напо	-13956
▁располагалась	-13957
благо	-13958
▁Звезда	-13959
▁исполнителей	-13960
▁Законо	-13961
▁долины	-13962
▁японский	-13963
чна	-13964
дное	-13965
▁ЮАР	-13966
▁владел	-13967
▁слегка	-13968
▁местность	-13969
ital	-13970
вавшие	-13971
▁напрямую	-13972
▁внутреннего	-13973
▁попе	-13974
▁считаются	-13975
зной	-13976
сара	-13977
▁Земле	-13978
Золотой	-13979
▁небольшая	-13980
сье	-13981
▁Общие	-13982
▁стоял	-13983
▁ответил	-13984
▁рестора	-13985
▁партнёр	-13986
▁изъя	-13987
синг	-13988
▁бас	-13989
▁Росто	-13990
▁посещал	-13991
▁написала	-13992
▁Особенно	-13993
▁защищать	-13994
▁пехотной	-13995
ваемые	-13996
▁квалифици	-13997
▁официального	-13998
▁опира	-13999
▁зат	-14000
▁железо	-14001
▁дополнительных	-14002
скон	-14003
▁аббат	-14004
▁главные	-14005
▁расследо	-14006
▁Спас	-14007
▁улицей	-14008
▁продолжить	-14009
става	-14010
▁Визан	-14011
рике	-14012
▁находясь	-14013
▁равна	-14014
жих	-14015
ностями	-14016
▁польской	-14017
▁рассказал	-14018
▁Симферо	-14019
▁воссозда	-14020
толической	-14021
ary	-14022
▁термо	-14023
▁учебного	-14024
▁греческого	-14025
▁Великий	-14026
▁Is	-14027
▁сотрудничал	-14028
▁взят	-14029
▁Русского	-14030
▁Жана	-14031
рики	-14032
▁считая	-14033
▁лопа	-14034
▁нанес	-14035
▁импуль	-14036
▁отдельного	-14037
ax	-14038
▁барона	-14039
зией	-14040
▁ситуацию	-14041
▁расположение	-14042
iel	-14043
жённость	-14044
▁оча	-14045
сном	-14046
▁выпустили	-14047
вилась	-14048
▁записал	-14049
▁окраине	-14050
Франциско	-14051
▁спортивных	-14052
▁Италию	-14053
▁женских	-14054
▁Третий	-14055
▁прочего	-14056
▁прихо	-14057
▁хребта	-14058
aur	-14059
▁исте	-14060
▁эквивален	-14061
▁самок	-14062
▁присутствуют	-14063
Май	-14064
▁et	-14065
ворец	-14066
▁Отличи	-14067
▁хвосто	-14068
▁историка	-14069
▁превосход	-14070
дим	-14071
▁мара	-14072
▁королю	-14073
▁приговорён	-14074
▁величина	-14075
▁Маха	-14076
▁элемент	-14077
▁победой	-14078
ler	-14079
▁недостаточно	-14080
▁технического	-14081
томо	-14082
▁разъ	-14083
▁Внутрен	-14084
▁размером	-14085
▁дыха	-14086
демии	-14087
▁опаса	-14088
▁кафедру	-14089
▁определение	-14090
Москов	-14091
▁INSEE	-14092
▁продаж	-14093
▁Структура	-14094
▁Управление	-14095
▁стипен	-14096
▁Сталина	-14097
▁поездки	-14098
▁изобража	-14099
▁впечатление	-14100
стере	-14101
▁спроек	-14102
▁камень	-14103
трибу	-14104
▁знает	-14105
▁Народной	-14106
▁подразуме	-14107
▁составило	-14108
▁Mot	-14109
▁равнины	-14110
▁сотрудники	-14111
▁пушки	-14112
▁печата	-14113
▁подклю	-14114
▁гроб	-14115
▁Sk	-14116
▁двум	-14117
▁Амстер	-14118
▁мяча	-14119
▁Потом	-14120
▁сыграв	-14121
рующий	-14122
▁единицы	-14123
▁Народный	-14124
▁свето	-14125
▁композиция	-14126
▁треуголь	-14127
▁Джоном	-14128
▁Парла	-14129
▁автоно	-14130
▁расположи	-14131
Tube	-14132
центр	-14133
▁пределы	-14134
▁устройств	-14135
кка	-14136
цк	-14137
говари	-14138
байкаль	-14139
▁голова	-14140
▁иеро	-14141
▁личный	-14142
▁Наконец	-14143
▁статью	-14144
▁базу	-14145
▁промышленность	-14146
▁Реги	-14147
вето	-14148
▁Эрик	-14149
▁истока	-14150
▁Верхняя	-14151
▁образа	-14152
▁имелось	-14153
▁Калифорнии	-14154
▁Майк	-14155
▁Валерий	-14156
▁Российского	-14157
▁будто	-14158
▁ЦСКА	-14159
▁восстановление	-14160
рея	-14161
▁занимала	-14162
виш	-14163
▁План	-14164
ватели	-14165
зур	-14166
▁Par	-14167
▁значительный	-14168
▁сегодняшний	-14169
ниции	-14170
▁подчиня	-14171
▁Алжи	-14172
▁энерги	-14173
Зна	-14174
▁Рэ	-14175
▁перехва	-14176
▁кандидатом	-14177
FC	-14178
Воз	-14179
▁ЮН	-14180
▁собрании	-14181
зефа	-14182
чках	-14183
Пор	-14184
▁относят	-14185
▁корруп	-14186
▁действуют	-14187
вица	-14188
ццо	-14189
▁дополнение	-14190
▁сможет	-14191
▁различным	-14192
▁пом	-14193
▁принц	-14194
▁месторождения	-14195
▁Барсело	-14196
▁колледжа	-14197
▁выполнять	-14198
ii	-14199
▁Абха	-14200
▁чешу	-14201
▁забив	-14202
▁действовать	-14203
▁шка	-14204
рине	-14205
▁статусе	-14206
▁вершины	-14207
▁Известные	-14208
▁видами	-14209
▁инвали	-14210
▁Третья	-14211
▁продолжение	-14212
uss	-14213
▁Исла	-14214
▁мелкие	-14215
городского	-14216
▁этажа	-14217
▁продюсером	-14218
Жи	-14219
▁Главным	-14220
▁проспек	-14221
▁водосборного	-14222
▁иной	-14223
▁присоединились	-14224
▁ФРГ	-14225
▁нейт	-14226
титель	-14227
▁этаже	-14228
▁угрозой	-14229
▁Киева	-14230
▁черте	-14231
▁образованием	-14232
▁танцева	-14233
шского	-14234
▁торговых	-14235
▁региональных	-14236
▁монголь	-14237
▁правому	-14238
▁эмиграции	-14239
▁дала	-14240
▁декабрь	-14241
Цент	-14242
ждённая	-14243
▁вагонов	-14244
▁Mag	-14245
▁убийстве	-14246
▁Мел	-14247
фанта	-14248
▁половина	-14249
▁Кузне	-14250
вёзд	-14251
▁явно	-14252
▁соло	-14253
▁авиационной	-14254
▁концертов	-14255
.;	-14256
▁селения	-14257
▁процессы	-14258
▁Статисти	-14259
▁мурав	-14260
▁Избира	-14261
▁оценкам	-14262
▁роду	-14263
▁Павлов	-14264
▁Гло	-14265
▁Вильгельма	-14266
▁политическим	-14267
▁рыбы	-14268
▁углу	-14269
ёрами	-14270
▁неот	-14271
▁лодок	-14272
▁продолжала	-14273
евым	-14274
▁исторические	-14275
▁IS	-14276
тском	-14277
вшимися	-14278
▁функция	-14279
▁белый	-14280
▁настоящего	-14281
▁назвать	-14282
▁масло	-14283
▁офицера	-14284
хер	-14285
дика	-14286
▁сельском	-14287
▁демонстра	-14288
▁еврейского	-14289
▁бабу	-14290
▁Фёдоров	-14291
▁частной	-14292
▁различия	-14293
граммы	-14294
▁оранже	-14295
▁личных	-14296
▁перспекти	-14297
вяза	-14298
▁уволь	-14299
▁чисел	-14300
▁сценарист	-14301
гю	-14302
левич	-14303
спешно	-14304
▁пользователей	-14305
▁фракции	-14306
слоци	-14307
▁критика	-14308
▁заболеваний	-14309
чьих	-14310
альную	-14311
▁феода	-14312
знен	-14313
▁шасси	-14314
▁штраф	-14315
▁приехал	-14316
▁Лорен	-14317
▁гитле	-14318
▁Использование	-14319
▁петер	-14320
СО	-14321
▁WW	-14322
тало	-14323
▁Препода	-14324
▁Николаев	-14325
зюдо	-14326
лармо	-14327
▁сосе	-14328
▁кажется	-14329
▁Осе	-14330
дз	-14331
▁утром	-14332
колов	-14333
вероят	-14334
▁хоккеист	-14335
зас	-14336
▁Илья	-14337
▁войскам	-14338
▁успел	-14339
▁скульптур	-14340
▁чудо	-14341
▁редактора	-14342
▁унаследовал	-14343
дере	-14344
хово	-14345
язви	-14346
нером	-14347
ратор	-14348
ъёмки	-14349
▁трон	-14350
▁вопросу	-14351
▁обладают	-14352
▁ежене	-14353
ницах	-14354
▁отвечает	-14355
▁законы	-14356
yl	-14357
▁Треть	-14358
дум	-14359
▁Аба	-14360
▁рабочие	-14361
▁учёного	-14362
▁открытым	-14363
монав	-14364
летнем	-14365
▁Будапеш	-14366
▁действовали	-14367
йс	-14368
▁родом	-14369
▁операцию	-14370
вказе	-14371
▁Рудо	-14372
▁Расположено	-14373
▁существовала	-14374
довым	-14375
▁церковно	-14376
▁вытяну	-14377
▁уничтожить	-14378
зера	-14379
▁всемир	-14380
▁китайской	-14381
▁попытке	-14382
▁качество	-14383
▁агентства	-14384
▁образца	-14385
▁французским	-14386
▁Создание	-14387
▁Люксем	-14388
▁называться	-14389
▁Свердловской	-14390
▁новыми	-14391
рально	-14392
▁проекте	-14393
ТУ	-14394
▁Оцен	-14395
▁«…	-14396
▁Micros	-14397
▁делится	-14398
▁Имя	-14399
Йорка	-14400
▁несу	-14401
▁попасть	-14402
▁ценно	-14403
менской	-14404
▁открытый	-14405
▁крем	-14406
ленное	-14407
хани	-14408
▁Художе	-14409
десяти	-14410
▁Гил	-14411
Лучший	-14412
▁Успен	-14413
▁Дети	-14414
вени	-14415
ллинг	-14416
корреспондент	-14417
▁Сон	-14418
США	-14419
нитар	-14420
ans	-14421
ционеров	-14422
шками	-14423
▁супруга	-14424
зво	-14425
▁ВЦ	-14426
шенных	-14427
▁Макс	-14428
▁большом	-14429
▁крупной	-14430
ственному	-14431
рджи	-14432
▁называл	-14433
▁генеральным	-14434
Пла	-14435
▁справо	-14436
▁Центральный	-14437
▁Тот	-14438
дагоги	-14439
▁задей	-14440
▁руководя	-14441
берге	-14442
▁Нижний	-14443
▁районом	-14444
тивность	-14445
точного	-14446
тема	-14447
▁твер	-14448
▁парово	-14449
Un	-14450
▁видеть	-14451
▁снялась	-14452
▁перерыва	-14453
▁победила	-14454
▁железная	-14455
▁компенса	-14456
▁Corp	-14457
▁Шко	-14458
▁пане	-14459
▁выпущены	-14460
▁реформ	-14461
споли	-14462
▁кому	-14463
▁певец	-14464
тельстве	-14465
▁доступа	-14466
▁СНГ	-14467
видение	-14468
▁охраня	-14469
ilm	-14470
тто	-14471
щалась	-14472
▁удлин	-14473
Дону	-14474
март	-14475
▁сбо	-14476
▁польских	-14477
▁лесостеп	-14478
▁посвящена	-14479
рядо	-14480
бак	-14481
▁Хмель	-14482
▁консультан	-14483
Лей	-14484
▁заводов	-14485
▁экспорт	-14486
▁YouTube	-14487
▁Теперь	-14488
▁специальный	-14489
▁маркси	-14490
▁занимают	-14491
▁гром	-14492
▁слева	-14493
▁крейсер	-14494
▁разными	-14495
▁выступая	-14496
аном	-14497
▁возможных	-14498
▁сжа	-14499
▁мино	-14500
▁Служил	-14501
▁занято	-14502
▁короткометра	-14503
▁металлов	-14504
▁провинция	-14505
▁стартовом	-14506
▁заявили	-14507
▁Гэ	-14508
▁дикта	-14509
▁сектора	-14510
▁домохозяйств	-14511
▁флага	-14512
▁понять	-14513
▁полёт	-14514
▁касается	-14515
▁гора	-14516
рении	-14517
▁перейти	-14518
▁сведений	-14519
▁правительству	-14520
движи	-14521
▁определяет	-14522
выс	-14523
▁Мали	-14524
▁прогно	-14525
▁восточных	-14526
▁образованию	-14527
▁правого	-14528
▁удара	-14529
▁винтов	-14530
▁Ассоциации	-14531
▁наоборот	-14532
▁Love	-14533
▁друже	-14534
▁присутствии	-14535
▁Лебе	-14536
электро	-14537
▁заметил	-14538
▁высокая	-14539
Бра	-14540
чусет	-14541
▁Лаза	-14542
▁предприня	-14543
De	-14544
лама	-14545
▁Аму	-14546
▁чай	-14547
▁секунды	-14548
▁варианты	-14549
▁факторов	-14550
ise	-14551
▁зала	-14552
▁Депутат	-14553
▁Основным	-14554
▁Квин	-14555
▁афро	-14556
▁Меж	-14557
▁Ближ	-14558
▁месту	-14559
▁событиях	-14560
▁ово	-14561
▁марке	-14562
▁перебро	-14563
▁вокзала	-14564
▁показать	-14565
▁предполагает	-14566
лярной	-14567
▁Примерно	-14568
чел	-14569
шины	-14570
▁детской	-14571
▁обл	-14572
тарей	-14573
▁адресу	-14574
▁сборника	-14575
▁Мэт	-14576
гр	-14577
зовой	-14578
▁металла	-14579
▁впере	-14580
▁благоприя	-14581
▁парном	-14582
▁светло	-14583
▁животно	-14584
вию	-14585
▁сильным	-14586
▁церковью	-14587
▁специальной	-14588
▁Art	-14589
▁продукты	-14590
▁вожд	-14591
▁озере	-14592
▁опровер	-14593
снаб	-14594
▁хорва	-14595
▁золотые	-14596
▁стадиона	-14597
▁пропаганди	-14598
▁Владимирской	-14599
́к	-14600
▁Основными	-14601
▁современный	-14602
▁получать	-14603
▁Астрахан	-14604
▁коалиции	-14605
▁отмечается	-14606
меном	-14607
▁поколение	-14608
▁зарубежных	-14609
▁Норман	-14610
▁судьи	-14611
▁водных	-14612
▁Западного	-14613
▁убы	-14614
▁увле	-14615
▁сцену	-14616
единяет	-14617
▁Облада	-14618
совета	-14619
▁принцип	-14620
▁Европейского	-14621
▁заслу	-14622
▁укрепи	-14623
▁установили	-14624
▁работами	-14625
▁позволили	-14626
фора	-14627
фицирован	-14628
▁тамо	-14629
▁постановлением	-14630
▁сила	-14631
▁Коммуна	-14632
▁протеста	-14633
▁происходят	-14634
трин	-14635
началу	-14636
читься	-14637
▁имену	-14638
▁Время	-14639
комплек	-14640
▁участков	-14641
▁декла	-14642
▁течении	-14643
шино	-14644
▁Герб	-14645
▁дизайн	-14646
▁задачу	-14647
▁ведущий	-14648
▁авиационного	-14649
▁принадлежала	-14650
▁небольшое	-14651
▁установления	-14652
▁хотели	-14653
▁вступи	-14654
▁тысяче	-14655
▁непол	-14656
▁Борисо	-14657
▁угла	-14658
которое	-14659
▁давлением	-14660
▁машина	-14661
йна	-14662
▁разбира	-14663
▁Аш	-14664
▁благодар	-14665
;…&	-14666
▁ног	-14667
▁купо	-14668
▁обер	-14669
▁Коста	-14670
▁Малай	-14671
▁снялся	-14672
▁отцу	-14673
▁социал	-14674
▁лечеб	-14675
▁отчёт	-14676
▁пожара	-14677
▁Известен	-14678
▁получение	-14679
Вест	-14680
▁Отде	-14681
▁Хуан	-14682
▁неве	-14683
марки	-14684
▁поддержкой	-14685
▁Правительство	-14686
▁прус	-14687
канской	-14688
▁размеры	-14689
▁иллюстра	-14690
́д	-14691
▁Софи	-14692
▁замке	-14693
▁кампанию	-14694
Казах	-14695
ствию	-14696
▁скром	-14697
▁командующий	-14698
щаяся	-14699
▁женщиной	-14700
▁грамот	-14701
▁изготовления	-14702
▁народный	-14703
КБ	-14704
▁гиль	-14705
▁граду	-14706
▁Варшаве	-14707
▁Брест	-14708
▁воздушных	-14709
▁троллейбу	-14710
▁защитника	-14711
зили	-14712
▁эры	-14713
рых	-14714
яна	-14715
▁Оби	-14716
▁угля	-14717
▁эфир	-14718
▁Лейпци	-14719
▁ид	-14720
▁вни	-14721
▁ссыла	-14722
▁резерва	-14723
▁сборные	-14724
▁подтвердил	-14725
▁It	-14726
▁ассоции	-14727
▁японских	-14728
▁Br	-14729
мотра	-14730
таций	-14731
▁Белого	-14732
▁принёс	-14733
▁Татьяна	-14734
НИИ	-14735
бас	-14736
▁красного	-14737
▁проектом	-14738
▁ясно	-14739
настоя	-14740
▁Центра	-14741
▁меньшин	-14742
▁зоо	-14743
▁Ричарда	-14744
▁красный	-14745
▁выделены	-14746
▁приспособ	-14747
▁скла	-14748
▁вражде	-14749
▁собственным	-14750
▁груди	-14751
▁природных	-14752
▁миль	-14753
▁серебро	-14754
▁большими	-14755
▁сыграли	-14756
▁владений	-14757
VID	-14758
зды	-14759
▁какое	-14760
▁получали	-14761
▁фаль	-14762
▁активность	-14763
▁Джан	-14764
▁Мура	-14765
ваемый	-14766
▁отделении	-14767
▁Гва	-14768
▁фос	-14769
▁Боро	-14770
▁опасности	-14771
▁архиепископа	-14772
▁архитектором	-14773
▁Профессиональ	-14774
нян	-14775
▁поиска	-14776
▁таблице	-14777
ческо	-14778
менных	-14779
▁никакого	-14780
▁литература	-14781
▁предполагалось	-14782
круп	-14783
▁Кировской	-14784
▁праздник	-14785
президент	-14786
Мин	-14787
▁Северном	-14788
▁остаются	-14789
▁использованы	-14790
:"	-14791
▁Одной	-14792
▁Лондона	-14793
▁Существуют	-14794
▁майор	-14795
▁целый	-14796
▁свободно	-14797
Sh	-14798
Дру	-14799
▁храб	-14800
▁Буэ	-14801
десят	-14802
▁Слов	-14803
▁остаться	-14804
стно	-14805
▁казаков	-14806
англ	-14807
▁прости	-14808
▁Хали	-14809
▁проиграла	-14810
▁пригласил	-14811
зву	-14812
▁жену	-14813
▁Район	-14814
▁науке	-14815
▁обвинению	-14816
▁июль	-14817
▁носили	-14818
▁парламентских	-14819
▁симпто	-14820
▁митрополита	-14821
▁Gen	-14822
▁темно	-14823
▁Основан	-14824
▁течёт	-14825
уме	-14826
▁оскор	-14827
▁выдержа	-14828
▁полуостро	-14829
▁нат	-14830
▁восстанавли	-14831
блоки	-14832
▁прототи	-14833
▁случаи	-14834
▁запущен	-14835
▁Суд	-14836
зовые	-14837
▁кладбища	-14838
▁источникам	-14839
▁прохождения	-14840
▁основное	-14841
Пау	-14842
▁симпа	-14843
▁проводился	-14844
▁лучшей	-14845
▁поездов	-14846
ero	-14847
ниса	-14848
▁мане	-14849
▁дзюдо	-14850
▁надписью	-14851
голосо	-14852
▁Пенси	-14853
▁учиться	-14854
▁собственность	-14855
листы	-14856
▁партией	-14857
▁португа	-14858
▁Краснозна	-14859
▁турне	-14860
[...]
